[PAD]
[UNK]
[CLS]
[SEP]
[MASK]
<S>
<T>
##6572
##656E
##D0BE
##6573
##6F6E
##D0B5
##616E
6465
##D0B0
##D984
##D0B8
##D8A7
##6172
##E0B8
##D0BD
##D182
##7469
##D98A
##6F72
##696E
##D180
##616C
##D0BED0
##6F73
##6173
D8A7
##7465
##6973
##C3A9
##6368
D8A7D984
##7265
##D181
##D985
##6369
##D986
6C61
##6974
##6965
##7572
##D0BB
##D8B1
##7461
##6F6D
656E
696E
756E
##D8AA
##6C65
##D8A9
##7565
##6164
##656E74
##D988
##726F
D181
##7261
D0BF
##756E
##656C
##D8AF
##C3B3
##D0B2
##D0BA
##6963
##7573
##D18F
D0B2
##6F6C
##6865
6573
##D18B
D0BE
##616D
636F6E
##6174
D0BD
##D183
##D0BC
##696C
D0B8
D8A7D984D8
7365
6469
##D0B4
##74696F6E
##656D
##6964
##D8A7D8
##7269
616E
##D0B5D0BD
D988
6C65
646573
##D18C
##D982
##746F
7265
717565
706172
##D8B9
C3A9
##6C61
##D181D182
636F6D
D985
##6961
##746572
656C
616C
E0B8
##E0B9
##D8B3
##D8A8
##D987
D180
##696F6E
##6564
##6C69
746865
64656C
##7574
##646F
##C3B36E
70726F
6574
3139
##6972
##C3AD
D0BA
##D983
D0B4
D182
##D185
##D981
##D0BED0B2
##6574
3230
##D0B7
D0BFD180
706F
D0BC
D0B5
7375
##6465
##7374
##6967
##D0B0D0BD
646572
##6365
##D8A7D984
##6D61
7072
##D0B9
##D98AD8A9
6175
7175
D981
C3A0
##756C
746F
D8A7D984D985
D8A8
##657273
##6563
##C3A1
##D0B1
6C6573
##6369C3B36E
##616E74
##656E7465
##756D
D0B0
D8A3
6F66
##D0BED0B4
##696E67
##696F
##D0B5D180
##6162
D0B3
##C582
##D8AD
##696368
##616E64
6E6F
##6168
##D187
D88C
##696D
D183
646965
##D0BF
##D8AC
756E64
##D8A7D8AA
D981D98A
##756E67
##6E65
D0BB
##D0BED180
##7472
D0BDD0B0
##D0B3
D984
##616E67
D8AA
##E0B8B2
6C6F73
##6167
##7475
##74656E
696C
706572
##D0B5D182
736F
D8B9
D0B1
D187
6475
##616E73
##6174696F6E
##6170
##6976
646F
##D0B5D0BDD0B8
##616B
##726573
657374
##C3A8
##D0B5D0BB
##C3BC
##D0BED0BC
##717565
##D8A7D986
##7365
##7175
##D18E
##696572
##D0BED0BB
##D989
##6D65
616E64
##6F77
D181D182
65696E
D0B7
6572
##C3A4
##D0BED0B3
6368
##6163
706F72
##D0BDD18B
6578
##86D0B8
323030
666F72
E0B9
##69656E
696D
##747265
##D0B0D0BB
##6175
6163
##D0BDD0BE
##D0B6
##6567
##746976
6173
##6C6F
##626572
##D181D0BA
6E61
##6F70
##696361
##656E64
6170
6C6173
##D0BED0B9
##E0B899
D985D986
##63696F6E
##D8A7D8B1
6461
70617261
##D8B7
##C3A973
##616461
##6765
##A36F
##D8A7D985
##D0B0D182
##6F64
D0BFD0BE
##D8B4
##C499
##D0B8D182
##616C65
##D98AD986
6D61
496E
##61646F
756E61
##C485
##6D656E74
##697A
##E0B8A3
6172
6F6E
##C3A36F
##7570
##D0B5D0B4
##746963
##D0BED0BD
##D8B5
##697374
6265
##706F72
656D
6973
##7473
##D180D0B0
##636865
##657265
##636961
##627265
736F6E
64C3A9
##6F67
##657373
##D0BED182
##D984D989
##7562
323031
D98A
##E0B887
##6469
##E0B988
6176
D8A5
##6179
7369
##D181D182D0B2
##657374
##72616E
##696E65
##6666
D180D0B0
64656E
##D0BED0B3D0BE
##6169
736572
##C3A7
##6E69
##7A65
##6F63
##64656E
756E65
##D0BDD0B8
##6E61
D8A7D984D8AA
##80E0B8
##7A79
##D8B2
##D0B5D0BC
D0BED0B1
747261
##6475
##D189
6F72
64616E73
706F7572
##7665
7472
##7A61
##D988D984
##D8B6
##E0B989
##646572
##6461
456E
##666F72
636F
##D188
##D0BBD0B8
##D8AE
D8A7D984D8A3
##7567
##656D656E74
##696F6E65
##6962
616D
##656E73
##E0B8AD
706C
##74C3A9
##69646164
##D987D8A7
##D186D0B8
646973
746572
7465
636865
##D98AD8B1
636F6D70
D988D8A7D984
##D0B0D0B2
##6E6F
766F6E
##766572
##747261
726573
##E0B8B2E0B8
##D0B0D180
##D0B0D0BA
4C61
##C3B1
##6C6573
646173
6D6F
7370
##D8A3
##656E746F
737572
##C3AD61
##E0B8B1
707265
##696369
D0B6
##706572
696E746572
##7661
##636F
##616C6573
##C5BC
##6368656E
D983
##74696E
##D181D18F
6E65
##617269
##D8B0
6174
##C3B6
6F62
##D988D986
6162
##7564
##D8AB
3138
##746F72
##D0B5D0B9
##6D69
706F73
##6872
##C3A965
##676F
556E
##D0B8D0BD
7468
766572
313939
##757273
##D8A7D8AF
##D0B0D0BDD0B8
6164
##706F
##616E7465
D0BED182
##616369C3B36E
##617265
D0BDD0B5
##656974
D0B7D0B0
416E
717569
##D0B5D0BDD0B8D18F
636F6E73
##7468
D181D0BE
##3030
6375
##636F6E
##697373
D8A7D984D8B9
##7065
4573
##C3A972
##617A
C3A8
436F6D
##C59B
##67656E
##6D6572
##63696F6E6573
##616C6C
D0A1
66696E
D18D
6765
##81E0B8
##67616E
6D656E
D18F
436F6E
72C3A9
##616A
456C
546865
##617373
##D0B5D0BA
636F6D6F
726F
D987
##D8BA
##C3BC72
6861
756D
6D65
7A75
4C65
707269
##D8B1D98A
D8AD
6D6974
##D0B8D185
##D0BBD0B0
##74656C
##D0B8D0BC
64656D
6772
##6B61
##6E79
##6D656E7465
##D0BED181
##616E646F
416C
##6B616E
##697265
##616C69
##6361
776173
##E0B8A3E0B8
##697465
##C3BA
##D0B5D0BBD18C
##D181D182D0B8
D8B3
6C6F
737461
6661
##617264
6E656C
##696E61
##D0BBD18F
D184
##69636F
##6974C3A9
6365
D984D984
D09A
##706F7274
D0B3D0BED0B4
E0B980E0B8
##696E73
D0BFD180D0BE
D0BDD18B
##6D656E
##D8A7D8A1
D186D0B8
##636573
6F75
D986
##7075
##6D6F
4368
##616E6F
##616D62
##E0B8B5
##D8A7D8A6
##C3A0
##6775
D8B9D984D989
7374
C3BC
##646F73
D982
##6F75
D092
##61746F
D185
##617261
##736F
##C3A173
##636C
697374
617566
##746564
766F
##C3AA
##D8A7D8B3
##677261
##D988D8B1
##C3A96E
7065
##616368
##D984D98A
##6769
D0B8D0B7
##D180D183
##D8A7D8A8
##666572
D18E
##6F7264
##746573
##C3B377
##C39F
##706F73
5265
##756572
706F6C
##69656C
##636B
##D0BDD18BD185
65737461
656E747265
##756E64
##D0BDD0B0
##6D696E
4172
7061727469
617573
617574
##D8AFD8A9
D09F
##6F7572
6D6172
6672
##75726F70
D0BFD180D0B8
##D0BCD0B8
##7072
6F73
##D8A7D8B9
647572
5365
##636970
##D0BED0B1
##C487
D8A3D986
##6B69
##616E61
##656E7461
6865
7361
##D8B3D8AA
66C3BC72
##696C6C
##D186
D0B1D18B
##D8B8
D8AC
D189
##6A65
##7578
##C3A87265
D09E
4D6172
##69646F
##757261
##D0BED0BA
736F6C
70657273
##D0B8D0B2
##6674
6167
##6F7265
506172
##726974
706173
##D182D0BE
D0B2D18B
##61646F73
##69C3B36E
6279
##626C65
##D0B8D0BB
72656C
##696E64
##74696F6E73
50726F
636172
64616E
##637A
##C3A7C3A36F
##6F74
70726573
##74726F
64656C6C61
##D985D8A7
6369
##697365
##D0BAD0B0
636F6C
##76656E
D188
617070
6D6F6E
686162
6D616E
##7275
##D0B8D0B9
##697469
D8A7D984D8B3
4465
##D187D0B5
##736368
##6C6963
##6B75
##6C696368
##697468
##766F
74656D
##E0B8A2
##E0B8B4
706C7573
D8AF
##696573
##6D616E
646F6E
6D75
##706F6E
##D0B5D0BDD0B8D0B5
##E0B8A7
##D0B8D0B8
617578
##76656C
##D184
D8A7D984D8AF
D18B
636F72
696E64
##D0B3D0BE
##757265
D0BED0B2
D8A5D984D989
696E73
3130
D8A7D984D8A8
##69636874
6E6F6D
##74656D
##6265
67656E
##6369616C
##657261
##D0B8D18F
646F73
7573
##69746F
D0BFD180D0B5D0B4
##E0B894
##697461
74656E
##696B
##6E6965
##71756573
D8A7D984D982
7061
##D8A7D981
##D0BDD0BED0B9
D180D0B5
D090
##6562
736368
##D0BDD0BED0B3D0BE
D09D
636C
7768
##EFBB
##7369
313938
70726F6475
D180D0B0D0B7
##696365
##6375
776972
##E0B980E0B8
##7765
##D985D8A9
##6C79
##696461
##7761
566572
6D656D
D0BFD0BED0BB
##D0B8D0B5
##6761
##D0BED0B6
##746F73
D0BFD0B5D180
##70726573
##696564
##6275
706572736F6E
65696E65
##D8AAD985
##616D70
7261
##696C6C65
D0BCD0B8
636173
##D98AD8AF
3135
6974
##6B74
C3A4
##D0B4D0B0
##6970
6D696E
##696C65
7779
##D0BED0BF
##D98AD8A7
##616D656E7465
D8A7D984D8AD
##656C6C
##69656D
6E6F6E
D181D0B2
##6374696F6E
##D186D0B8D0B8
4265
737573
##6F726573
D186
##6966
##C3A873
D09C
64616C
61766563
##E0B8A1
6361
79616E67
D0BED181
##D984D983
##6D6573
D0BFD0BED0B4
D8A7D984D8A5
##D8A7D982
D8A8D8A7D984
##746172
D8A7D984D8AC
777572
6D6564
##7A696F6E65
74726F
6F70
6D656E74
##D98B
D181D182D0B2
77697468
736F627265
##D0BED182D0BED180
3137
##D0B0D0BBD18C
666F
496C
##7569
##C3A16E
##626C
##D183D0B4
##65726F
6F63
736F6E74
73696368
##656E746573
##726F73
##706172
6DC3A173
64697265
##D0B5D0B2
##6A61
##696465
616C6C
##D0B8D181
6B65
656C65
D8A7D984D985D8AA
##74697475
##666F726D61
##65726E
##616E6365
3132
64696573
7069
##D8B1D8A9
##6F7261
##7479
726567
##D0BED0BBD18C
##616E79
##7061
536368
##D982D8AF
##6F62
##72656E
73657276
##726173
##D18FD182
E280
736967
##776F
##D98AD984
D8A7D984D986
##E0B8B0
##D0BAD0B8
##D0B5D181
706C61
##697475
##69737465
##6F6E67
##6F6E64
776172
7269
##E0B881
##E0B8ADE0B887
776572
##6261
##6F7269
##D191
##7A69
##6F6B
D187D182D0BE
##D183D18E
##D0BED0B7
##D182D0B0
##6F7273
##D0B0D182D18C
D0BAD0BED182D0BED180
D0B4D0BE
##746973
313937
##69736368656E
##7973
6F7267616E
D0B3D0BED0B4D0B0
4173
71756573
##747269
##69737461
636170
3136
76657273
726563
616C73
D0BCD0B5
D181D0BB
537461
6C69
##616C697A
##7279
707562
##C3AD73
4575726F70
7472616E73
D0BDD0BE
##D8A8D8B1
677261
756D61
7072696E
##D0BBD18C
D0B8D0BD
626572
D985D8B9
##74696C
D0A0
##616E6E
626173
D182D0B0D0BA
##636861
63656E74
D8A7D984D981
##D0B6D0B4
##D8A6
6D6F64
##6772616D
##616765
C3A1
##E0B98C
##D0B0D18F
D0B4D0BBD18F
D8B9D986
##E0B89A
##74696361
##6861
666F726D
D093
##76657273
##D988D985
##E0B8A5
7075
D0B2D0BE
##D981D98A
766F6C
6D616973
##746966
##746F6E
617373
##7669
D0BBD0B8
##61696E
D8B1
3131
##686F
C3AA
##74616C
4572
##65747465
##6F6C6F67
##C3A96573
##65676F
##D980
##616465
D0BAD0BED0BD
E0B981E0B8
636F6D6D
E0B897
##696F72
##D0B0D0BC
##C59B6369
7572
##D180D0BED0B2
##D0B5D0BDD182
##D8A5
6D6572
D8B4
##6B73
D988D8AA
##726967
7061727465
##6A6F
C3A97461
##696E6F
##656E6365
4672616E
C3A974C3A9
##697479
##D985D986
6166
D0BFD180D0B0D0B2
636572
##61646173
45737461
D18C
##C3B9
667565
##63657373
C3A7
7469
##D985D984
##62656E
D091
##61697265
##616D69
536F
D18DD182
6A65
##6C616E64
3134
##736B
##67756E
7775726465
##D8A4
3133
7665
70656C
7369C499
766973
##C3A46E
##63696F6E616C
6D6973
##D187D0B5D181D0BA
536965
6F6E74
##D8A7D8AC
##D180D0B0D0BD
63616E
##D8A7D8AD
##D0BDD18BD0B5
D094
##6F6E65
##617578
##D0B5D181D182D0B2
##757365
##6174696F6E73
##686E
C3BC626572
D0BDD0B8
313936
6E6965
##6374
D0BDD18BD185
74686174
##D181D182D18C
##616E65
##616973
736573
##C584
##75656C
696D706F7274
D8AE
D0B9
6D6174
##616E746573
##706C
##7576
##706563
##D8B9D8AF
##65737469
##D0B0D0BDD0B8D18F
##74696E67
D8A7D984D8AAD98A
##D180D0B3
##6976657273
5465
##656E636961
646569
776965
4865
##676572
7072696E636970
##6C616D
##656E7469
##6379
66616D
##656C6C65
##69717565
##7A656E
##6177
##74697665
D8A7D984D988
##6A69
696E636C
##757373
##D0B6D0B5
4E65
##6F7274
##D984D8A9
##D0B0D0B5D182
736965
##63756C
D0B5D0B4
##D181D0BF
7072C3A9
##E0B8A3E0B8B0
##7068
##696F6E69
D0B8D0BC
##D8B1D8A8
##697473
##D0BDD0B5
##D180D0B5
##6572616C
##636973
636F73
D0BAD0B0
66696C
313934
##616D6269
##676C
##D0BDD18BD0B9
##61626C65
##E0B895
686973
4F72
##7566
##D98AD985
##6874
637265
##B56573
##C3B4
##6172696F
D098
61756368
##6B65
6E6F73
4E6F
##D986D8A9
C389
D987D8B0
##D0BBD0B5D0BD
##697665
5374
7365696E
##6E656E
D8A7EFBB
4772
61C3B1
##D98AD8B3
##69676E
##766973
##6174696F6E616C
446965
6F64
77657264656E
##676573
##D987D985
##D8B9D8A9
##6B6F
##616D65
676F
##D180D0B8
6C6F63
##696E69
##756368
5072
##616E746F
686173
6E616368
70656E
6E74
##696C69
##69726573
7475
66726F6D
D8A3D988
##756C74
617265
706F64
##E0B8B9
##6F6E61
##D183D182
##616C61
4A6168
6E75
6275
6D6573
##657269
D8A7D984D8B1
##D8B9D984
696E666F726D61
686F
##6F6E73
D8A7D984D8B4
70726F66
736563
4E61
6E69636874
##636572
726170
##6269
##6772
##C58261
##697373696F6E
72656C61
##617973
417573
##E0B8AB
6D696C
##7769
626F
##D181D182D0B0D0B2
76656E
##757465
737472
6D6173
64656C6C
5468
707565
616E6E
##6F6D65
6D69
##E0B987
##706C65
##D986D8B3
##666963
657261
626973
4162
##636964
##D181D0BB
6E69
##6AC485
##E0B897
##67616C
##796D
##D8AAD8B1
##617374
D0BED0BD
##D982D8A9
##7A6F
666F726D61
656E74
70726F6772616D
626573
636F6E747261
##7A6965
6372
##D985D988
##6F6E6F
##6C656E
##D0B5D0B7
##707265
616363
D18ED189
##6E6572
##72696F
7669
3330
##756E67656E
##D8B4D8B1
73697475
636F6D756E
696E66
D8A7D984D8AE
313935
D182D0B5
##7469766F
##D0BAD182
626569
##616C6D656E7465
##C3B56573
##616E7469
D0BED0B4
##776965
##756C61
6DC3A9
6D756E
6A75
73696E64
766F72
416D
##D0BDD0BED181D182D0B8
##656E65
##6F6C75
##74697661
##D181D182D0B2D0B0
65737465
73656D
686572
##D988D8AF
##756C6172
3235
436F
7363
6772616E
D181D0BA
##D181D0B5
##C3B2
##616E7473
##747564
636F6D65
72656E
##D8A7D98B
##616469
D0A2
##6C75
67726F
##D991
737562
##6F6E74
526F
##726965
##E0B8B7
707261
##69646173
E0B8AA
676573
657363
##74757265
##636564
##D985D98A
D0B1D18BD0BB
##616D61
636F6D6D65
496E746572
6665
656666
D8B0
E0B8AD
##D8A8D8A9
##D0BCD0B0
##E0B8B5E0B988
##7069
6E6F72
##796368
##D8ADD8AFD8A9
4164
##D8A7D8B5
706F7373
D8A7D984D8B5
##756C7461
##D0B0D0B4
C3AA747265
73616C
##74C3B3
##7961
##D0B5D0BAD182
D0BAD0B0D0BA
436172
##D180D0BE
##616D6269C3A96E
##D982D8B1
##686572
##69636B
7A7572
7765
D0BBD18C
##657276
E0B881
##D988D982
##696E74
736F6369
##74657572
657373
7461
##616B616E
##D0B0D181
##636874
636573
D8A7D984D983
C3B6
##696461646573
##63686F
486F
##656E6E
6EC3A9
D0BED0BC
##D18BD0B5
##D98F
##73747275
##656E7473
6D6574
##D18ED182
##6F6C61
313933
##E0B8B8
686174
5370
##69746172
D8B9D8A7D985
##68656E
##D0BDD18BD0BC
756E746572
6564
##6974C3A0
##616E6961
636F6D6D756E
##696F6E73
##636369C3B36E
D0B4D0B5
D983D8A7D986
##D185D0BED0B4
##E0B988E0B8B2
##D0BAD0BED0B2
##6C696F
##D8A3D986
737561
77697264
70727A65
73C3A9
##D0B5D0B5
616C6C61
##D98AD8A7D8AA
626172
6576
6575726F70
616C6C65
4D65
636F6E66
##66696369
##6C616E
E0B983
E0B89E
64726F
D187D0B5
##D187D0B0
##7073
D0BAD0BED0BC
303030
D8A7D984D8AFD988D984
##666F726D
65696E6572
##636570
7072C3A973
##61646F72
##6C6572
6272
D8A7D984D984
##62696C
##6E656D656E74
6B6F6D
6365747465
##D180D0B5D0B4
##D181D182D0BE
6F646572
##6C6F73
##636965
D8BA
##D8A8D984
##7474
##D988D8B3
43616E
##E0B8AA
##656E61
D181D0B5
656C6C65
##D18BD185
D8A7D984D985D8AAD8ADD8AFD8A9
526567
##E0B884
##6F6C6F
##626172
6A6564
E0B882
64657578
D0B0D181
736F6E6F
##6F6E6573
666972
6475726368
##D8ADD8AF
##C5826F
##73656E
##63696F
##696F6E6573
##D0B1D0BED182
776F
##D0B8D0B7
73656C
##6F7374
##C3A86D65
##D8A7D8B7
64656C6C65
##6C6567
70617373
##D181D0BAD0BED0B9
4A6F
4D6F
7175656C
##747A
D181D181
##69646572
##616E6965
426572
##D8B1D983
66756E
##756172
##D183D0BD
##63686572
##6A6574
6F7574
D0B3D0BED0B4D183
##617961
4949
E0B884
E0B8A1
6163746976
53616E
6D656D62
##756B
C3A96C
4C6F73
63616C
##6F6D61
##656E746F73
##6C74
##7561
6D7573
757469
6C6965
##6E6961
##D183D180
##D8ACD984
##D0B8D182D0B5D0BBD18C
##D983D8A7D986
506F6C
6B6F6E
##636172
6672616E
##65737461
466F72
686F6D
##D182D0B8
636F6E74696E
##617365
C3A973
D8A7D984D8A3D985
32303130
7061C3AD73
##616E69
D8A7D984D985D986
##D0BDD0BED0B2
##D8AFD98A
4D61
6E6F6D627265
##C3A96D
##D8A7D983
64696666
4973
5061
##766F72
70726F70
##D0B0D186D0B8D0B8
73756C
##69656A
6E6174
756E67
##706C6F
##6D656E746F
##617273
D0BED0BA
E0B984
##7773
##C3BC6E
6A657374
##61726F6E
3234
D8A7D984D8B0
73696E
##6C6173
506572
##7469636F
##696F73
7A756D
3231
##D181D0BAD0BED0B3D0BE
666F6E
##70656E64
696E7465726E
##726973
##6D6173
72656D
##D8A8D98A
74C3A9
6F7472
##63696173
66616974
506F72
##746967
696E76
##6C6563
6D6179
7072696D6572
D181D183
67C3A96E
4C6573
726973
7069C3B9
313932
##6974696F6E
6EC3A36F
D182D0BE
64617373
##6F6C6C
##C3A2
D0B8D0BBD0B8
D988D984
##D0BBD18E
##D983D986
706172746963
##D8AAD98A
D09B
73696D
6E6563
C3BA
696E7374
74726162
##656D627265
74616B
##74746F
736567
446573
##C3B66E
70756E
73656E
6269656E
##726F6C
D8B5
##696C6C61
D09DD0B0
##D8AFD985
7379
##69646F73
##626F
D182D0B0D0BAD0B6D0B5
D0B5D0BC
##6F726B
##D988D98A
##D183D0BF
##61726961
7A65
D181D0B8
##D182D18C
6C657572
6669
##6973636865
##717569
D8B7
##696E6573
##726961
##697261
##D982D98A
6566
D181D0B2D0BE
##726174696F6E
##6A6563
##D8B9D985
##D0B0D0BDD0B8D0B5
##75616C
696E69
##D988D8AC
##776E
7368
##637269
616F
3232
6675
747265
E0B888
##69656E65
##6F6D6F
##626F72
##D0B5D0BDD0B8D0B8
E0B981E0B8A5
74616D6269C3A96E
##7469717565
68616E
426172
6A7573
##6E7961
##646173
##69626C65
##6D6F73
D8A7D984D8B9D8A7D985
##6E796368
##696D65
##6E6573
657374C3A1
637A
##6272
436F6D6D
##616E6F73
D180D183
##D0B8D0B4
6B74C3B3
646566
32303036
32303038
667261
E0B8A3
4272
7373
C5BC
##76656C6F70
67727570
696368
##D0B8D187D0B5D181D0BA
32303037
##75726573
##C58279
D181D0BED0B2
646172
##756C65
##D986D98A
6F706572
D0B5D0BD
77657265
D181D18F
6C75
##6F7765
##616E7A
556E69
D0BED0BF
##E0B8B3
556E6976657273
##63686F73
32303039
D8A7D984D8AB
D0B3D0BE
456D
666F69
D0B5D0B3D0BE
5368
68697374
7061727469636970
313931
7A61
##6572656E
6E6F7573
65737065
70726F76
##E0B8B2E0B8A2
4575726F7065
676C69
636F6E63
D0B2D181D0B5
6E6F75
##6C6965
##D8A7D8AFD8A9
D0B4D0B5D0BB
3233
747574
7065726D
##D0B8D182D18C
##617369
##D180D183D0B3
##D988D981
##D0BED0BDD0B0
746F7574
4A65
65696E656D
32303030
6169
4D6F6E
6F726967
70727A79
##D180D0B5D0BC
E0B899
47656E
6769
4D6974
647572616E7465
4861
##616C6973
45696E
##75726F
5375
706F6C697469
6E756D
D187D0B0
747269
##616C74
32303131
617574726573
65696E656E
61646F
##D986D8AA
##D986D8AF
32303034
7375706572
6C6F67
D988D8A3
D984D985
646F63
##E0B881E0B8
##D8A7D8B6
6967
4765
##6963616369C3B36E
7A77
5472
##656D65
D180D0B0D0B1D0BED182
436F6E7365
D0A4
6DC3AA
##7477
6B6D
##D985D98AD8A9
756E73
##C3BA6E
D18A
D186D0B8D0B8
D8A8D98AD986
D987D988
##6F7365
##657274
68756D
##696D69
426F
D182D18C
##6172696F73
##696C64
E0B895
##C3BC6872
##D0B0D0BBD0B8
##6C7469
4D696E
##E0B989E0B8B2
76616C
##D180D0BED181
6E656C6C61
32303035
##636F6E6F6D
##D180D0B0D0B2
4578
6775
##6F7761
##69636F73
##C3AD6E
496D
63616D
##C3A474
##E0B8B6
##D8A7D987
4E6F72
6A6F
##D0BDD0BED0BC
##657365
7479
706C616E
##C3A964
7768696368
##696765
6F6666
##D8A7D8B1D8A9
74656C
62656C
##E0B8B1E0B989
##756E65
##D98E
636F6D706C65
D988D985
D0A3
##617274
D0BCD0B5D0B6D0B4
##C3B672
##6573736F
##6973746572
D985D8A7
7175616C
45737461646F73
6F7267616E6973
##D988D8A8
50726573
##616974
72C3A967
##6F737461
D8A7D984D8B7
32303132
##D180D0B3D0B0D0BD
63656C
##D8AFD8B1
##D183D187
D8A7D8B3D8AA
##D8AED8B1
##617465
6A616B
##E0B89B
##D8B7D8A9
7265616C697A
6E7565
D8A7D984D985D8B9
##6D69656E746F
D8A3D98A
D0B0D0B2
6772616E64
E0B981E0B8A5E0B8B0
##6C756E67
C3A963
##74756B
##74686572
##6967656E
##616C6C79
##747275
D0B5D0B4D0B8
313030
##D183D0B4D0B0D180
6D6167
##C59BC487
##737465
##62756D
##D0BED181D183D0B4D0B0D180
486572
##D0B8D0BA
##676C69
637269
##7461646F
##6176
##726F6E
##D8B3D8A8
##687265
70617973
646F6D
##656E646F
7075626C6963
##E0B987E0B899
4B6F
##7A6961
##D988D8B9
##D8AAD8A8
##617279
##6665
D18FD0B2
##D983D984
C3A7C3A36F
##D8A7D986D98A
D181D182D180D0B0D0BD
7574696C69
##D8A7D8B2
636F6E74726F
616E636865
##617A696F6E65
746974
##6172726F6C
5363
66756572
##6964656E7465
##616A6F
626574
C3A976
##6D696E697374
##65747A
##62656974
706F6CC3AD
##697369C3B36E
616666
507265
##D0BED0B5
5175
616C736F
##696E7369
##D8B3D984
D0BFD180D0B5
##697374656E
667574
##666F
7068
6D616C
##63696C
##69616E
436F6C
##E0B988E0B887
4B6F6D
D0B2D0B0
##697474
3236
##D8A7D8B3D8AA
##C5BC79
##6279
C3A967616C
636F6E73747275
6F7267616E697A
D0BCD0B0
D0B5D182
646976657273
D0B3D0BED181D183D0B4D0B0D180
##6567656E
##C3A761
##D181D182D0B2D0BE
##7361
D89B
##617361
##D0B5D182D181D18F
70C3A9
32303133
C3897461
##D98AD8B2
##61647265
##697368
D182D180
7365636F6E
D181D182D0B8
6D6F72
##E0B988E0B8AD
##E0B888
##7074
D0B8D181D0BF
61C3B16F73
##EFBBBB
##D18BD0B9
726566
D189D0B5D181D182D0B2
D8A7EFBBB7
##757065
D8AAD8B9
##D0BDD18F
##D0B3D0B8
##647563
D0BDD0B0D180
##726564
##61746572
6465736465
D987D8B0D987
##6974616C
3238
436F72
696E636C75
##656C74
##617468
4D616C
666572
##D0BED0BFD180D0BED181
D988D98A
D0BFD0B5
696E7465
3237
##C3AD616E
D0B4D0BED0BA
D0BFD0BED181D0BB
##E0B8B1E0B899
##696768
76657A
##6A6F72
D0BDD0BED0B2
547261
D0B4D0BED0BB
6469726563
6DC3AA6D65
506F
D0B2D0BED0BFD180D0BED181
##72617A
496E64
##616C6168
746F72
6F67
##D0BAD0BE
D095
##6B656974
627574
766F7573
##67656C
4C75
##D0B5D0BDD0BDD0BE
746F646F73
D0BFD180D0B8D0BD
##D8A7D984D98A
666163
##69636573
617072
4974
63696E
6F7264
##D0B5D182D0B0
3530
756E74756B
##6964616465
636861
##6A6572
##696F6E616C
##C3AD6F
##D0BDD0B0D18F
6C6172
656E73
##756C69
D8AAD8AD
##E0B8B1E0B89A
64656E67616E
##656D62
536563
32303031
686164
##757267
696E63
##6E6574
##7568
##D0B2D0B0
E0B897E0B8B5E0B988
70726F7465
##757374
466C
##61726573
##E0B8B2E0B8A3
E0B89B
3331
##D0B7D0BED0B2
##D985D8B1
##61636B
62617365
74726173
##6D616C
##9BE0B987E0B899
64616C616D
4166
D185D0BED0B4
##D0B0D185
##D8ACD986D8A9
756E6F
667265
6E6567
696D70
726573706F6E
D0B5D0BDD0B8
##6964656E
766965
##D8ADD8A9
7065726F
D8B0D984D983
436F6E73
##72C3B3
##676172
5065
70726F706F73
E0B982
656E66
##7374656E
##D0B2D0B5
7472617661
##6F726F
6C7567
64657265
6C696368
D0B4D0B5D180
D0BBD0B0
##72616C
##C3AD6173
##72756D
##C49964
696E7465726E61
D0BDD0B0D181
43656E74
##68616C
##D8AAD8B5
##6774
##6E636961
D180D0BED0B2
C59B
706F6E
##6B656E
##69726F
##D183D0B1
7574696C
D0B5D181
D0B3D180D0B0
61696E7369
##E0B8B2E0B8A1
##6974C3A973
70727A
D186D0B8D0B9
7661
##6174616E
D0BDD0B5D0BD
737570
556E746572
32303033
##69737469
##D180D18F
##627261
##746164
##726963
6F6273
D988D8A8
D0B8D18E
E0B8A7
4C6F
##7AC485
##D8B1D981
D987D8B0D8A7
737065
546572
32303134
##6B6F77
##6368616674
D0BCD183
6A756E
646576
67C3A96EC3A972
6175746F72
726F7A
##746173
6972
##616265
4E6577
##75746F
##6964656E74
##746574
616E67
D988D987
32303032
E0B8AB
657870
D0B2D180D0B5D0BC
##69736F6E
##6C696E
##75646164
##69656E646F
##69737472
6E6173
##6963616C
##C3A7C3B56573
##E0B89E
D0B8D185
73656775
74656368
##C3B161
##D0B5D0BBD18F
4F6E
4D616E
##4949
4163
D0BFD0BED0BC
3239
##67726573
##D0B8D180
##D180D183D0BF
74696F6E
D0BDD18BD0B5
##617461
D0B2D0BED0B7
7275
##66696361
##D986D98AD8A9
##61646F726573
64C3A976656C6F70
446572
##D8A7D8B1D98A
##D988D8A7
6772616E6465
##D186D0B8D18F
##766972
##D8AAD987
##6F6369
747572
7961
##D0B7D18B
6465736172726F6C
##6C6568
D181D0BBD183
D8A7D984D8B0D98A
D09ED0B1
##D980D980
D182D0B5D0BBD18C
64617269
63686172
70726F626C65
73756F
736F7573
70616461
66696C6D
6C7569
##70756C61
D0B4D180D183D0B3
##7572616C
##637A79
##D0BBD0B5
D097
##6174656E
D181D0BF
4C6173
6C696D
D988D8A7D984D985
6C6C65
##D8AFD8AF
##7175656C
##74756469
7369737465
##D8A7D986D98AD8A9
##6669
6E6F7461
##6C64
D0B4D0B5D0B9
##D0B5D0B3D0BE
##C3B372
##696D6F
E0B983E0B899
646F63756D
63616D70
##65737465
##D0BDD0B8D0BA
##6D696572
##6E6963
D0B5D180
##D181D0BAD0B8D0B9
6F6E65
746F74616C
##7469636173
##686F72
617274
5553
##69736D6F
##D0B5D0BAD0B0
##6163696F6E6573
##D8B9D8B6
566F72
##7A75
61637475
6174696F6E
6E6F74
72C3A973
70657574
4A616872
##666F726D65
6179
5765
D0BED181D0BDD0BED0B2
C3A967616C656D656E74
##696574
676172
6C6567
##D8ABD984
D987D98A
C3A974616974
##E0B894E0B989
666967
##D0B0D0BBD0B0
5369
6BC3B66E
657370
6E7572
736B
616E7469
##D8B5D984
6D6F73
##6E696B
6861737461
##D0B5D0BDD0B8D18E
706573
77656974
417566
##D0B5D0BBD0B8
D0B1D183D0B4
##796E
E0B882E0B8ADE0B887
736570
6C6F7273
646973706F73
706F70
##67696F
766961
##D8B1D98AD982
32303135
##D0BDD0BED181D182D18C
696872
70617274
7072656D69
6D656E7465
##756573
436F6D6974C3A9
646562
##747461
##776572
##D0BAD0B5
##61746F72
D181D182D180
##E0B88A
##6E656A
##797374656D
##D0B0D0BDD0B4
##6F75766572
##E0B981E0B8
416D6572
##D0B3D0B0
726F6B75
6F7269
D0B6D0B5D0BD
##6162696C
##6F6E79
6E6F76
##C5BC65
D8A7D984D985D8AD
7574696C697A
D8AB
D0BED0B1D0BBD0B0
D0AD
##656E64656E
4775
636F6E7461
##6B6572
##7265696368
447572
6961
6C616E67
6365727461
5361
6175737369
##696D61
7965
##C3B16F
##C3A472
616C65
##636A69
476573
64C3A963
D8B6
6D656C
546F
##C3BA626C
696C73
##746974
476F
D181D180D0B5D0B4
496E73
6D6F6D
6A7567
616E73
##6C696368656E
##E0B984
##D0B7D0B0
##616D656E
D8A2
##D8A7D984D8A9
##766573
706F7369
7574696C6973
646F6E74
726573706563
##676574
C3B3
737563
##656E74616C
##6965676F
D187D0B5D0BB
616C63
D183D187D0B0
636F6E7369646572
617072C3A873
636972
737465
7075656465
7A696F6E65
##D98AD988
##7779
647565
##414E
##D0B7D0B0D0BD
726570726573
6575726F7065
##D984D981
##616E67616E
736562
61C3B16F
686162656E
##656465
D8A8D8B4
##616261
66696E616E
66656D
##636173
736F72
617461
##D8B7D984
62616E64
##66656E
##D8AAD987D8A7
62696C
D0B4D0BED0BBD0B6
66616D696C
73697374656D61
D985D8AC
##63686573
##D987D8AF
3430
##D983D8B1
##C3BC636B
D0B2D0B5D180
636869
43616E616461
##6368C3A9
6D6F6C
676572
##7469766F73
526570
##69746572
##656E6E65
61626572
D0B6D0B5
D988D981D98A
436872
##646164
62656E
##756768
313930
726570
536572
D8A7D984D985D8B3
##C3AD63756C
706F70756C61
457374
##D0BED0BCD183
##D8AAD988
31393939
##74616E74
636975646164
##617473
D8A8D984
6375616C
##D0BAD183
D0BBD0B5
696E647573
616C67756E
6C6F6E67
63617061
70656E73
6669727374
5068
6C6967
71756573746F
##D181D182D0B0
4D6564
6D656872
##61727365
6D696C6C
##7576656E74
64C3A976656C6F7070
##656D626572
##75656E
##D0B2D0B5D182
70727A657A
7061C3AD736573
##6962696C
##74656D656E74
696465
61646D696E697374
D0BDD0BED0B9
##686C
##D183D0BBD18C
##69656E74
##D986D8A7
##C3B36D
##D0BBD0BE
47656E6572616C
6E65636573
72657072
746572726974
##C3AE
636C69
##6976656C
##70656E
6469657365
##657373696F6E
726576
67756572
736F75
64697374
636F6E6469
737A
##676F72
7773
##69747A
##D985D8B9
D0B4D0B8
##6F6E69
416E64
53616C
##617061
6FC3B9
##7465726E
##6C6961
##D180D183D0BFD0BF
##6661
##D0BCD0B5
##757468
766976
656E7472
##D182D0BED180
##D0B8D0BCD0B8
##616872
65737469
706174
##D988D8B1D8A9
D0BDD0BED0B3D0BE
D0BED182D0BDD0BE
##D0BED0B1D18B
##D8B1D8B6
42656C
##D983D988D986
C3A2
##D982D984
D0BAD0BE
##6F6C64
##6E65676F
636F6E747265
##636F73
D8A8D986
D180D0B0D0B7D0B2
##6772616D61
##657267
##D18D
666F7572
##68616E
697473
507269
##D180D0B0D0BC
##6E6F6C6F67
D181D0BED181D182D0B0D0B2
746F646F
##637572
436C
E0B980E0B89BE0B987E0B899
D0BFD180D0B5D0B4D181D182D0B0D0B2
##636869
4575726F7061
##61747A
##6C6967
##65737365
##6C69636865
66696E616C
##D8A7D8AB
D984D8AA
70726F6A6574
D181D0BBD0B5D0B4
##746972
D09ED180D0B3D0B0D0BD
6B6F
616E74
637569
##D0BBD18ED187
4C616E64
##D0BFD180D0B0D0B2
C3AD
6C69626572
##616E6465
726573706F6E73
6F726967696E
D0BBD18F
##D180D0B3D0B0D0BDD0B8
D0BCD18B
4672
##D0B8D0BBD0B8
D0BCD0B5D0BD
4174
746F7573
##6F757665726E656D656E74
##D180D18B
D0B0D0BD
4E616368
##D181D0BAD0B8D185
##D180D0B5D182
6D616E64
736F6C6F
##6D6172
D0B3D0BED180
63756C
D8AAD985
666F6E64
##636C65
##D98AD981
##617475
D0BED180D0B3D0B0D0BDD0B8
D09AD0BED0BC
##D9A9
D8A7D984D985D988
6175746F
##69737365
##D189D0B5D181D182D0B2
##D8A7D984D98AD8A9
##74656E64
##796F
46696E
636174
6964
##6174696F6E616C65
6578706572
D187D0B5D0BBD0BED0B2
D8A5D986
##D8A7D985D8AC
726164
70726F647563
##656E67
7570
##74616B
##D982D8AA
##62616E
706C69
D184D0BED180
##D0B5D0BDD0B8D0B9
646F6E6465
##756C64
D0BED181D182
##61686C
6172746963
##63656C
D0B4D0B0D0BD
D0B1D0BED0BB
7468656972
666C
7265636F6E
6575
6D61796F72
##6D79
##616E7461
##C3A9726965
D8AAD986
##73636861
D8BAD98AD8B1
##70616461
D985D8AD
D8A8D8B1
D98AD8AA
##7A696F6E69
##D8ACD8B1
696E74
D988D8A5
##796563
E0B89EE0B8A3E0B8B0
D180D0B0D0BD
##E0B983
657373657265
736F73
##C5BA
##D0A1
736574
##C3B364
63616461
616B
##726565
D0B3D180D183D0BFD0BF
##74616D656E7465
##D8B3D8A9
31393938
656E64
##6EC3A9
73746172
D0BFD0BED181D0BBD0B5
D985D988
##65726F73
##63696F6E616C6573
##7075C3A973
61706F
6D656E67
D0BAD0BED182D0BED180D18BD0B5
6C75676172
D182D0BED0BC
736575
416C65
##69637A
##D188D0B5
4469
D0BCD0B5D0B6D0B4D183
##D98AD8B1D8A9
626567
70616C
6BC3B66E6E656E
6D61696E
D8A3D983
74656C65
D0B7D0B0D0BA
##D98AD8AB
D18FD0B2D0BBD18F
##69746F73
E0B89A
E0B88A
6C6F63616C
##D8B3D98A
63617573
D0B8D0BDD0B0
##D8A6D98AD8B3
736F6D
##6E796D
77686F
##D988D98AD8A9
##756D65
6F74726F73
70726F63657373
556D
##6A75
536567
696D706F7274616E7465
6D756C
6C65757273
##6F6C69
D0B5D0B9
6C6962
D0BFD0BED0B2
##D8B3D985
646976
##75656C6C65
D0BFD0BED180
73756976
D988D8A7D984D8AA
766F6D
5A656974
##E0B8B1E0B887
D0BED0B1D180D0B0
6661697265
6B616E6E
656E63
6869
##756E6773
65737061
706F62
77757264656E
##706C61
D183D0BA
47726F
##72696C
##D0B5D0BDD0B5D180
736567756E
626174
D0BCD0B0D182
##D8B4D8A7D8B1
7072696D61
D0B8D0B7D0B0D186D0B8D0B8
##D0B4D0B5
##6C616369C3B36E
D8B2
64C3A976656C6F7070656D656E74
6861626974
756E6976657273
506C
74726F6973
D180D0B0D0B7D0B2D0B8D182
467261
746172
##D984D985
636F6E7365
313839
D0B1D0BB
##69656D62
D0B0D182
##616D69656E746F
656E67
706172746965
636F757273
##D984D8A7D984
##D8A7D8AE
##696E6773
##6F62696572
##D181D18C
646C61
##656C73
6D656E746F
##D183D0BBD18CD182
7369676E69
##79637A
646965736572
7469656E65
##C3AC
5361696E
D8A8D8B9D8AF
D0B0D180
##D187D0B8
E0B894
##E0B982
756C
666F726D756C61
6E6F6368
##6C6564
##C3A97269
##72C3A1
636C617373
E280A2
##70696F
D0A5
##6E6F77
##D8ACD984D8B3
63C3A9
##E0B882
537465
##D8A7D8A6D98AD8A9
##6D6564
##D0B5D181D181
D0B2D0BED0B4
##7570616B616E
646973706F6E
4345
##726567
##D8B7D8B1
61646F70
##756C6F
##746572696F72
D985D8AA
64616C6C61
636F6D7072
D0B1D18BD0BBD0BE
4B6F6E
##616C73
D984D8A7
696E7374697475
##69C499
4D7573
##6973746173
6D65727570616B616E
##69657274
##C3A8726573
32303136
##68656974
70656E64
7065726D6574
D0B2D0B5
##756D61
##D0BDD0BED0B5
##737461
706F75
72656369
##D983D988
##C3BA73
##C3B36C
##626F6C
##6F726E
##D0B0D0BDD0B0
##7472696275
##E0B8B2E0B881
476572
D0BCD0BED0B6
736F6369616C
##D8A7D986D988D986
##656D6F73
3630
C3BA6C7469
6173C3AD
657370656369616C
##D981D8B1
57696C
6375616E646F
##656C64
##C3B16F73
##62756168
746168
D8A7D984D985D8B1
##77617264
7369646F
65737461646F
##6172616E
5261
D0B1D18BD0BBD0B8
76696461
4A6F686E
##D8A7D8AFD98A
746F7572
##616E6765
##706973
##D8ABD8B1
##756E61
##D186D0B8D0BED0BD
##676C696368
626563
##6D6F6E
4B6172
D0B1D0B5D0B7
##C3B373
##D98BD8A7
70726F76696E
##76616C
##7669726F6E
726F6D
##74657273
D0BED0B1D0BBD0B0D181D182D0B8
D0BBD18E
##D0BBD0B5D0BDD0B8D18F
##6AC499
D0BBD0B5D182
56616C
##616E6B
726564
C3A965
6465676C69
726170706F7274
##69636173
##616E7A61
646961
##69676874
##6A656D
##766961
##D0B8D182D0B5
D18DD182D0BE
68617665
3030
##D184D0BED180
##74616369C3B36E
##D0BDD183D18E
636F6E7472
##D988D8A7D8AA
7A7765
##6D697373696F6E
D983D984
D8A7D984D8A8D984
##6F736F
64657075
6A6F7572
736562756168
627265
696E74C3A9
##6E6168
656E6375
D0B8D0B2
C5BC65
486172
46696C
##D8B8D8B1
706C6179
##C3B3C582
436F6D697369C3B36E
##75616E
74616D62
D8A7D984D8A3D985D985
D180D0B5D0BA
##D0BED0B2D0BED180
D985D8B3
67656E6572
6F72617A
D182D0B5D180
73747564
##D181D182D183D0BF
##D0B1D180D18F
73656E73
697475
##726569
D8A7D984D984D8ACD986D8A9
686163
D181D0B0
##D189D0B8D185
74686973
##65727661
##70726F
6D657263
##62657267
C2B0
D8B3D98A
##756D70
##D8A7D8B4
6965
D0B5D0B7
70726F6D6F
##6369656E
D0B8D182
##6169656E74
D181D0B0D0BC
C38974617473
7072696D65
67656C
##7A77
766963
64697363
746F6D
##6F6F6C
##7965
6361736F
##D0BCD0B5D180
4175
##D0BED0B7D0B4
##D182D0BED0B1D18B
616C62756D
7A6F737461
6372C3A9
7365727669636573
656D70726573
73797374
##D0B8D0B2D0B0
636F6D706F73
##74696E61
##D18FD182D0B5D0BBD18C
##D0B8D0BCD0BE
736961
D0BFD180D0BED0B3
7472617661696C
6D6F76
6A7572
##746167
74616C
5061726C616D
##6F6C7574696F6E
##61746564
##C5826164
31393930
##D982D988D982
636F6E74726F6C
636F7572
##6F636B
636976
##6978
##D181D182D0B5D0BC
3335
74776F
##C3A972696361
686973746F72
D187D182D0BED0B1D18B
D988D982D8AF
##D8AAD985D8A7D8B9
53696E
6D656A6F72
D9A1
##D985D98AD8B9
##7A6572
##D8B1D8A7D8B1
##6469616C
31393937
##677561
66756E64
6465636973
76696F6C
D0B3D180
##616D656E746F
697373
D8A7D984D985D8B3D8AA
##616A61
D0BAD0BED180
##616E636961
417072
656E7669726F6E
477261
77656E6E
##D8B1D98AD983
706172746972
7175616E646F
6F6B
##757473
6465736172726F6C6C6F
##666F6C
D0B1D0BE
6566666574
##70756E
547572
##D8AED8B5
##E0B8B1E0B989E0B887
706167
##676F73
##D8AAD981
##D181D182D0BED18F
D0BED0B1D0B5
6170726F
67656E6572616C
D0BDD0B0D187
70726976
313838
D0B2D180D0B5D0BCD18F
##6C696E65
##D8AFD98AD986
6469666572
D0A7
576F
D8A3D985
6F6C
706C616365
74616E746F
D182D0BED0B3D0BE
##736B69
D0BAD0BED0BCD0BF
D8B9D984D98A
##D0B0D0B5D182D181D18F
##626961
D181D0B8D181D182D0B5D0BC
##74757261
D0BFD180D0BED0B3D180D0B0D0BC
656E7469
##D0BDD0B0D187
656C6563
##7573616D
C3A967
##D183D0BC
73657276696369
D182D0B5D0BC
##62756E
627261
##61746F73
##7469766173
##D181D182D180
D183D0B4
666F6C
6D7579
736F776965
D8AAD982
636F6E74
##D8B8D985
D0BFD0B5D180D0B2
31393936
##D181D0BED0B2
67C3A96EC3A972616C
6265656E
4F62
##D8B0D984D983
D0B8D18F
##6C6579
##746174696F6E
6CC3AD
656E6375656E74
##6F726C64
##617566
62657265
43686172
6D756E696369
##696D656E746F
73C3A36F
D0B8D0BCD0B5
4974616C
##7465696C
##D981D98AD8B0
D0BFD0BB
67616E
D0B3D0BB
##74696B
C3A96573
D0BFD0B0D180
##726561
636F6E7374697475
##6C65696368
D8A7D984D987
746964
##6E69656A
547269
6C6F726F
656E636F6E
4665
706572736F6E6173
70726F6772616D61
##D0B5D181D0BF
##6C69717565
##61636A69
666174
##656E7A
##766F6C
##E0B8B5E0B8A2
##C3BB
E0B8A5
##69766964
53746164
##63687465
##C3A9726174696F6E
D0B4D0B0
63756C74
6261
##D988D984D8A7
72656E64
6EC3BA
73616E73
##616E7961
D8A7D984D985D8A4
616D62
446173
66696E616E6369
31393935
##686970
6E6F7576656C
686162C3AD61
##D8B9D8A7
73746F
70726F796563
##656E746172
676F757665726E656D656E74
73616E74
##6F7361
4D696C
##D8B9D8A8
##6E6973
##776172
636C7562
486F74656C
61726368
436F6E7365696C
626C65
696E67
4672616E6365
4170
6E7469
D0BFD0BED181
5361696E74
##69736573
69687265
73696E67
656469
7072C3A973656E74
556E69646173
616E746573
##6369646F
##636F6C
##61747572
##D0B0D180D0BED0B4
D0BDD0B0D0B4
##706F727465
64616D
D8B9D8AFD8AF
##747572
##766F6972
417262656974
64726F697473
61646D696E6973747261
7072696E636970616C
##D090
##61726F
##6EC485
746563
##C3BA626C696361
##6479
##697661
##D0B0D0B7
657365
##676562
526563
61766F
D0BAD0B8
74616D62C3A96D
6D6967
71756174
D0B4D0B2
D0B6D0B0
D982D8AF
4F7267616E
436173
72656C6967
D988D8AC
C2B2
D8B9D985D984
D984D984D985
647261
7469656E
##7469636F73
697265
636F6D62
7265666572
##69666963
##D8AFD8A7D986
##D186D0B0
##72C3A9
417567
6E6174696F6E616C
6D69656D62
##D0B5D180D0B6
##6C6168
D0B8D0B8
7469656D
##686D
##D183D181
##69656A73
##6172696173
##C3A46872
##696173
31393934
D0BDD18BD0BC
7072656D696572
6E616A
65737461626C65
##7573616D6D656E
7472616469
##C3AA6E636961
##6F6361
##E0B8B7E0B988E0B8AD
61727269
D986D8B3
D8A7D984D8A3D8B3
74656D706F
D0BFD180D0B8D0B7
73747261
D985D8B1
##D987D8B1
6D756E646F
##62616C
506C61
D182D0B5D185
72617A
757273
D0B1D0BED0BBD0B5D0B5
50657273
4E6163696F6E6573
##D0BBD0B5D0BC
##4552
D0B4D0B5D18FD182D0B5D0BBD18C
##D0B5D180D0B0
D988D985D986
737461746F
706F646572
##D0BED0B2D0B0
D186D0B5D0BDD182
##7465726D696E
##6573747261
##6975
507265736964656E7465
47727570
##62657274
##696D69656E746F
D8A3D98AD8B6
##D18FD182D18C
##636C6172
313837
7370C3A9
6966
##7A797374
##6465726E
##D988D8B6
##6E6F73
##D8AED8B1D989
736578
726963
466F
##D181D182D0B2D0B5D0BD
676567656E
C3A9636F6E6F6D
##7175696572
313836
65696E6573
686172
4D6173
##75736F
D0B1D0BED0BBD18C
##C39F656E
D8A7D984D8A8D8B1
6E756F
61726D
##78696D
##D8A6D8A9
##C3B46C65
##7072657373
70726573656E7461
##68616D
##D8A7D8A6D984
D8A3D8B3
4A616E
526573
D8A8D8AF
676F766572
72C3A967696F6E
D0A8
73746F72
32303137
6F626A65
##756E69
6175747265
73616D
3332
##656DC3A173
D0AE
4365
D187D0B5D182
616E6E69
##6D656E7473
446F
##6E656C
##D0BFD180
##6F626965726E6F
72657072C3A973
7472C3A873
##D0BED0BBD18CD0BAD0BE
4E656C
##656D656E7473
##6573746F
##D8B0D8A7
636F6E736964
74726164
D0BED182D0BDD0BED188
##707261
6974C3A9
63656C65
##656E646572
6E6F757665
D0BED180
##D18ED182D181D18F
##74656E73
##D183D0BDD0B0D180D0BED0B4
D0BCD0BED182
74696D65
##6D6D
D8A7D984D8B9D8A7D985D8A9
696E666F726D616369C3B36E
D0BFD180D0BED182
7374656C
596F726B
##C3A974C3A9
D8A7D984D8B3D984
6C6976
##6D70
##D183D0BB
##D0B5D0BDD0B0
6D6F646F
##6365736F
##D191D0BD
##7563
##E0B8ABE0B989
E0B984E0B894E0B989
##736368616674
6964656E
706170
E0B8A1E0B8B5
72656769
68696572
##686D656E
D8A7EFBBBB
D18DD0BA
D8A7D984D8B9D8A7D984
636C61
70616E
666963
##646F77
D8AAD8B4
616C6F7273
6661766F72
736F6C6C
57696E
C3A970
696E6469766964
70656C6F
##C3A172
##D0B8D0BDD0B0
##D0BDD0B8D0BC
6CC3A9
##6E616C
4D6164
##656B
##656374
D98AD8B9
74726176
477265
737469
D988D8B9
6C7562
##616C64
436F6E73656A6F
726167
##D18BD0BC
##D8A1
##D98AD987
##D990
D183D187
E0B881E0B8
D181D0B2D18F
##69736368
##6D65726F
6465737075C3A973
537570
6176616E74
D0B0D0BDD0B8
746168756E
417373
##636F6EC3B36D
##E0B8B7E0B8AD
##D0BED189
##D0B0D182D0B8
6D69736D6F
##D8B9D985D8A7D984
3435
##6965757273
D8A7D984D985D8AC
##616C6C61
D181D0BED0B7D0B4
6D656469
##72656E74
45737461646F
7A7769736368656E
##E0B88D
##6D6D656E74
746F646173
##C39F65
##6F677261
D0B0D0BBD18C
D983D985D8A7
64657363
646570756973
D0B8D181D0BFD0BED0BBD18C
##6C6973
##6F7574
##D181D182D0B0D0BD
##7977
657175
4D756E
##E0B8B2E0B899
D0BBD0B0D0B4
D18ED189D0B8D185
4564
D09AD0BED0BCD0B8
6176616974
D8A7D986
67696F
##6E756E67
737564
6C616E
65717569
657265
706172746963756C69
##65726961
47656D65
C39C
6361726163
##69636865
636F6E7472696275
6D756A6572
##D0BED0B4D0B0
##6E6FC59B6369
6F6274656E
##706574
##61676169
##C49970
E0B8A2
##C3A473
D8A7D984D8AAD986
D0B4D0B5D0B9D181D182D0B2
##D98AD8A7D986
##616D696C
##7964
646974
D983D8A7D986D8AA
##736F6369
##C3B367
E0B980
7265616C
D0B2D0B5D182
636F6D6D6572
656D626172
##7565676F
6F766572
##76696572
D0B4D183
##656E6465
D8A8D985
##72696275
##7A6172
50617261
68616E64
64656E74
##D180D183D0B4
D0A1D0BED0B2
6B6572
D187D0B8D181
##D8A8D8AF
##6C696B
72656C65
686F72
656D706C6F
##D0BCD0BED0B6
##D0B8D0BBD18C
746F757465
616461
D181D182D0B0D0B2
D988D981
D0B6D0B5D0BDD189
##6369646164
##D984D8A8
##6963616E
6761
68696E
##626573
61766F6972
##C3A97261
63726F
D8A7D984D8B9D985D984
D8AFD988D984
##D183D0B5D182
6F626A6563
##D0B7D0B8
D0BAD181
53656E
D181D182D0BED180
##C3A163
7072656D69C3A87265
##74726F73
##D8B3D8B7
73756363657373
##736F6E
##6D6974
D98AD985
##75747A
616374
D182D0B8
##D8ACD8A9
6166746572
##6869
7469656D706F
436F6D6D697373696F6E
70756973
76696C6C61
4C69
##D984D8A7
6578656D
##75767265
##D0B0D0B9
4F73
##636C7573
436F6E76656E
##D988D8B1D98AD8A9
627573
31393933
##D186D0B8D0B0D0BBD18C
D181D182D0B2D0B5D0BD
##616D6573
6269
##686564
##6F706572
7072696D657261
##706173
616E6EC3A96573
##616E6461
6166696E
4D6F72
4661
6D656D62726573
7469706F
74726573
556E696F6E
7175616C69
##D988D8B5
D0BFD180D0BED0B2
##62757267
##6F6D696E
70656C61
##616B65
7365696E65
##C3AD6F646F
7072656E64
626168
616E616C
D0BED0BDD0B8
D8ADD98AD8AB
666172
7472617461
43616D
##D8A5D986
5374616474
##696369C3B36E
##69C3A86D65
##6F6368
##757665
44697265
##63C3A9
736F6974
##D988D985D8A7D8AA
73C3B3
##6C696361
D8A7D984D8A7D8B3D8AA
##E0B989E0B899
74616E
6D697365
7465726D696E
6C6C616D
D0B1D18BD0BBD0B0
##E0B8A3E0B8B2E0B8
##6F6C6573
526F6D
##616AC485
##D0B4D0B5D0BB
##6B6F6E
##74726573
D180D0B0D0B9
##66C3BC6872
D8A8D8B4D8A3D986
7A776569
31393932
6164616C6168
7365726965
456C6C65
D187D0BBD0B5D0BD
726573756C7461
D0BCD0B5D182
66C3BC6872
677275706F
446973
##7465757273
##76696E
##D0B0D0BDD0B8D0B8
4B65
##7069656C
##6E696361
##6D62
706572C3AD6F646F
7562
D0B3D0BBD0B0
616E7465
##696274
D182D18B
D182D0BED180
##65646572
74726162616A
##C3AD63756C6F
6D69656A73
426173
##6E74
6F74726173
##616761
##746F726573
576172
##D8B1D98AD8A9
##7A696F6E
##C3A46368
##79656E
434F
##6672
706572696F
##676965
D0BFD183D0BD
6E6F74616D6D656E74
##D8AFD8A7D985
646F6E6E
D183D181
D8A7D984D8A7D8AA
73C485
746964616B
E0B980E0B882
65636F6E6F6D
746578
##7265746172
696D61
D0B2D0BED0B7D0BCD0BED0B6
706172746963756C6172
64656D616E6465
6E697665
536570
62616E
677265
##D8A7D981D8A9
##726F72
6575726F70C3A9
##616D6F73
##D986D8A7D985D8AC
D8A7D984D8BA
636162
657361
##62616C6C
D0B6D0B8D0B2
##756E717565
44616E
3830
D0B8D180D0BED0B2
64C3A962
42656E
##757269646164
##6C6574616B
##756E746F
##D0B4D0B8
636F6E74696E75
##D982D984D98A
##D0B0D182D0B5D0BBD18C
67726F7570
3336
5572
6D617469
706F77
546F72
##74657269
D093D0B5D0BDD0B5D180
726F64
##6D6174
##C3A76F
##776179
##D8A7D8B9D8A9
##6174726F
##D0B5D180D0B5
D0BED180D183
416B
##726573706F6E
706C75736965757273
##D8AFD98AD8AF
6C6174
766972
D180D0B5D0B7
4D696368
##616E646572
6F74686572
67657374696F6E
696E746F
##7469766573
536F6E
6E646F
313835
616E6F
##E0B988E0B899
##C5826F77
##616D656E74
736569
D8AED984D8A7D984
3333
##E0B989E0B8B2E0B8
6465726563686F73
6E67
73656B
D8A8D8AA
556E69646F73
D0BFD0BED0BCD0BED189
61727469
##72696368
##D982D8B1D98AD8B1
617474
D18ED182
7369677569
##E0B8B1E0B989E0B899
D8A7D984D8A3D988D984
##646963
D8A7D984D98A
##D0BED0B3D0B4D0B0
C2BA
7665737469
32303138
666F6973
##D180D0B8D182
D0B2D0BED0B9
74656D7073
6E6F6D65
##7574736368
646563
6B74C3B37265
##D985D987
C3A36F
##7A7A61
696F6E
616C69
53656C
646967
D0B5D0B5
64696666C3A972
6B74C3B37279
74686579
746573
7072C3B3
##4152
6E656C6C
D18FD0B2D0BBD18FD0B5D182D181D18F
42726F
70696572
696E7465726E6174696F6E616C
##757279
62657A
C381
D183D180D0BED0B2
636F6E74656E
##617474
4461
64726F6974
706572736F6E6E6573
D0B5D0BBD18C
6D6F6D656E746F
##71756973
426574
67726F757065
##D0B5D0BDD18C
##697A696F6E65
4555
6F6C6568
C2BF
##63686965
##D988D8B1D98A
##6F6C756369C3B36E
##C5827567
##D0B5D0BF
64656369
##6369C3B3
D0BFD0BED0BA
6D616E74
696E636C7564
6163636F7264
726962
##64756B
##E0B884E0B98C
D0B7D0B4
706F6CC3AD74696361
##706965
##696E6173
62726F
68616C
D0BED0B9
636F6E6365726E
##C3A468
##70616C
746F6461
4E6174696F6E616C
##D983D8A9
4C696E
65666563
##D8A7D98A
554E
76696C6C65
D0BAD0BED0BB
##D988D8B2
63656E74726F
##E0B8B2E0B8A3E0B8
##69766F
D0B2D0B8D0B4
7175657374696F6E
657374C3A16E
616E6EC3A965
##D0B0D180D18F
676577
74656C6168
5061727469
47656F72
56657273
##6964656F
##D8B1D982
##D8A8D984D8BA
4275
D988D982
4D6974676C
666F6E6374696F6E
##73746572
7365696E6572
##D0BED187
353030
696E6465
C3A7C3B56573
##76616E
4C6F6E64
6EC3BA6D65726F
##E0B8B9E0B989
D0BFD0BED0BBD0B8D182
66616C
##656C6F
656E7472657072
636F72726573706F6E
##766973696F6E
3930
D0B4D0B5D182
74726162616A6F
6A75737175
4772616E
5061726973
D0BBD0B5D0BD
##6666656E
566F6C
##6BC3B377
73656E7469
6C696E65
D8AAD8AA
7175696E
646F6974
636574
6472
656C61
##656E7A61
636F6E6F6369
64697374696E
476172
73797374656D
##76696C
D98AD986
6E656C6C65
7465726C6574616B
706F7274
##D0BED181D181
D8A8D8AD
##646573
4E6F76
706F70756C6174696F6E
4D6167
4375
726974
##66696E
657572
667565726F6E
##74736368616674
##75736573
D988D986
##626965
6168
636F6E7465
##D0BDD18BD0BCD0B8
D180D0B5D188
446563
6361647265
D187D0B5D0BBD0BED0B2D0B5D0BAD0B0
##617469
31393931
##746163
736F6D65
##D8A7D8B3D98AD8A9
##3230
D187D0B5D181D0BA
##696374
696E7465726E6163696F6E616C
D0B3D0B0
##61646573
D0B8D0B9
D8ACD985D98AD8B9
4E6F7264
636F727265
50616C
E0B88B
##D98AD98AD986
D0BED0BB
D988D8A7D984D8A3
6E6163696F6E616C
70617265
66726F6E
616E6E6F
706F696E74
D0BED0BDD0B0
##D8AED8AA
63617361
4A61687265
76696E
##637A65
4175737472
##D981D8B3
3730
6C696E
##D184D0BED180D0BCD0B0
4D6572
696E696369
##61626C6573
D180D0BE
E28093
62656E65
##7469666963
63686F
45737465
##7769C485
D0BDD18BD0B9
D8A7D984D8B3D98A
##65747A74
646F706F
##E0B8B2E0B887
6D616E69
##6D75
##656D626C65
##69C3B3
D0B2D0BA
##747469
72696368
##6B6174
636F6D707465
##D0BED0BDD0B5
##D8A7D984D8A7D8AA
##796C
D182D0B0
467265
##D0B8D181D18C
4F64
##D183D0B1D0BBD0B8
D985D8A4
D8A7D984D988D8B7
##7461697265
6DC3A964
##D0B5D0BBD0B5D0B9
##D0BED181D18C
##D182D0B5D180
696369
6B61
C2A0
C593
##696761
##69657261
##61746573
##D984D98AD8A9
617665
616972
7578
706F6C697469717565
C3A46E
##C3A46E64
##6172C3A1
##7A6961C582
72657374
717565737461
6D656469646173
##D983D8AA
##696C73
6DC3B6
486F6C
##696E656E
4A6170
7374616E64
D8A7D984D985D985
696E7665737469
D0BCD0B8D180
636F6D6572
70726F6772616D6D65
##4553
D8A7D984D8A5D986D8B3
62616C
494949
776965646572
D0BBD0B5D0BDD0B8D18F
D181D181D0B8D0B8
D988D8AD
3334
D8A7D984D985D8B4
75736F
D0B1D183D0B4D0B5D182
73657276696365
##6968
6E6976656C
696E647573747269
6C6C6567
776F726B
68696D
##746F7265
##D98AD8B9
##D8A7D8B5D8A9
##D985D8A8D8B1
6563
E0B89C
##6375726974C3A9
##616C75
D0BCD0BED0B3
D0B2D0B8
616D6269
70756564656E
##D8A8D8A7D8AA
50726F6772616D
##6173616E
61637469766974C3A973
##6674656E
6861636572
##E0B8A3E0B887
676173
696E666C75
616273
##61686E
706965
D181D0BC
427265
6D6F7374
426573
617070656C
##6D73
##D0BAD0B0D185
##E0B989E0B8A7
##E0B8A3E0B8B4
##61676F
D0BFD180D0B0D0B2D0BE
73616E
##69657265
616D70
7065726D616E
616C746572
D0BDD0B8D0BC
##746971756573
##7574656E
##6F7373
##E0B8B4E0B899
##D8B1D983D8B2
6872
##6CC3A9
##6965726F6E
706F626C616369C3B36E
6D6174657269
68616E6E6F
D8B3D8A8
D0A1D0BE
6D6F696E73
##7572736F73
417274
436170
61727469636C65
##7574C3A9
706F6C69
73C3A96375726974C3A9
65636F6EC3B36D
##D8AAD8B1D8A9
4472
6E6563657373
686179
##706F727473
##6F73746F
6A616B6F
D0BFD180D0BED0B3D180D0B0D0BCD0BC
436F756E
D181D182D0BE
##4153
##7461696E
##697373616E6365
E0B881E0B8B2E0B8A3
77656C
7365636F6E64
D0B0D0BAD182
##D0B3D183
##D0B8D0BBD0B0
##747465
D18DD182D0BED0B9
D8A7D984D985D8AF
636F6E636572
D0B5D0B2
##65726F6E
637572
5545
696E666F726D65
D0B8D0BDD184D0BED180D0BCD0B0
7265636F7264
D8A7D984D8AFD988D984D98AD8A9
D181D0B5D0BC
726563686572
5465696C
74656D706F72
667572
636F6E666F726D
6F6363
626C6F
##D8AFD988D984
6E73
D180D0B5D0BD
##D982D8AFD985
7065726D69
D180D0B0D0B7D0B2D0B8D182D0B8D18F
72C3A9616C6973
476562
746F75746573
##D0B5D187
D984D987
##766172
D182D0BED0B2
70726F6D
##D8AAD989
##D0B3D180
31393830
##6669636F
706F74
D0B5D0B1
73797374C3A86D65
45737061
##656E6F
D182D183
##6F7779
7265737461
##617368
##D0BED0BDD0BED0BC
##C3A867
##D8BAD98A
49687265
##D18FD0B1D180D18F
##D8B9D8AA
##C584736B
61706172
##69766572
656D656E74
D0B1D180
##766564
##626C69
656E66616E7473
73756C6C61
##616469656E
6772616E646573
##75766572
D180D0B5D0B3D0B8
D0BCD0BED0B6D0B5D182
##63696D69656E746F
D181D0B5D0BA
##656974656E
62696F
6D656E6F73
5472616E73
##D8B8D8A7D985
D181D182D18C
6F70657261
6170706C6963
##697A616369C3B36E
6D6F6E6465
D0B0D0B1
##656E6173
6D6F7265
636170616369
##61706174
##D8ADD988
656E747261
66C3A9
4E6965
766967
D0BCD0B5D181D182
##D09E
##6F6C6C6F77
##69746573
4D656E
##D8A7D985D984
##D8A7D8BA
##656C61
##D181D182D0B2D0B5
##6179736961
D985D8B3D8AA
57656C74
72656365
6375656E7461
##776961
D0BFD0B0
##656E6961
5061726C616D656E746F
70726F636564
556E69746564
736865
696572
D187D0B5D0BC
##756E6B
7564
##6169726573
D0BDD0B0D0B7
C39F
##D8A7D8A6D98A
736163
##E0B980
6E6569
D988D983D8A7D986
73656261676169
656D626172676F
##D0BBD0B8D187
7475747469
##6C6172
506174
##616769
D181D183D0B4
4445
D985D982
5068696C
73746174
##726572
6F72616E67
53616D
636F70
##757461
626F6E
##D8B1D8A7D8B6
6469737472
6578747261
53657276
313834
##626C6573
##676961
D180D0B8
##D183D0BBD18CD182D0B0D182
##C39F6572
##72C3AA
##616978
E0B980E0B89E
D0BFD180D0B0
44656D
676C6F
##616A65
3338
766F73
##6F6C65
##697373696F6E65
##E0B8A8
##D8B1D8A7D8AA
496E666F726D61
##C3BC73
D0BDD0BED0BC
73656C6F6E
##D98AD8A8
##D8A7D8B1D8B3
7574
D0B2D0B5D0BD
D0BFD0B5D180D0B8
##757469
##D0BDD0B0D0BA
D180D0B0D181
##D0BED0BBD0BED0B3
D0BFD180D0BED182D0B8D0B2
##6973747265
6861747465
##E0B8B9E0B988
D981D8B1
##75726173
##E0B980E0B888
D184D0B8
66616D696C6961
D0BFD0BED0BBD183D187
##6F6D6D656E
D0B0D0BC
D0B2D0B5D0B4
D186D0B5
##656E6965
6C696575
43616C
##64656D
##D988D984D8A7D98AD8A7D8AA
72657373
##D8AFD8A7D8B1D8A9
50656E
##697369
70756E746F
##D18A
##C3BB74
##65726963
D0BAD0BED182D0BED180D18BD0B9
63686572
D988D983
4A65616E
3337
D0BFD180D0B0D0B2D0B0
##656C69
E2809D
6D756C7469
D0B8D181D0BFD0BED0BBD18CD0B7D0BED0B2
6E6F7264
D0A6
64C3A973
70726573656E7465
##6F7370
636F6D7065
##D0B0D0BBD18CD0BDD0BED0B3D0BE
##E0B8B6E0B988E0B887
74656E64
##C3AD74
656E636F7265
6D69656D62726F73
776172656E
4A616872656E
D180D0B5D0B7D183D0BBD18CD182D0B0D182
##C3A86D6573
4D6F64
416E67
706F6D
4D69
676574
##D8B7D982D8A9
7370656369
##D0B2D0B5D182D181D182D0B2
677565727261
##6B6965
6D656E6A
D984D984D8A3
D0B1D0BED180
6E6577
6D6169
73656974
##D186D0B5
##D98AD8AA
696E697A
##D8B8D985D8A9
##6369616C6573
6EC3A963657373
416C6C
##6E696E67
##63696F73
##D985D8A7D986
D181D0BED0BED182
5768
D0BFD180D0BED0B1
##7A656E6961
756E646572
D0BCD0B5D0B6D0B4D183D0BDD0B0D180D0BED0B4
64657374696E
726567696F6E
54686973
64657665
D186D0B5D0BB
657374756469
##69736174696F6E
D8A7D984D8B2
D8A7D986D8AA
##D0BDD0B8D0BAD0BED0B2
D984D984D8AA
##69616C
417574
73616E74C3A9
##D8AFD98AD986D8A9
##D988D983
6573706572
626C
##D8ACD985
##696572756E67
637A79
64696369
537564
##626265
576F726C64
##D0B0D180D182
52C3A9
##D98AD8AC
##74696E6F
D8A7D984D8A2
507261
696E74726F
6666
74616E74
D8A8D8A3D986
D0B1D0BED0BBD18CD188
##D0B5D0BDD18B
##65737A
D187D0B0D181D182
D0BFD180D0BED186
6469737472696275
686F6D6D65
##706174
70657576656E74
D0BED187
696E737472756D
D0B0D0B4
##756E74
##636873
4D6179
3635
D181D0B2D18FD0B7D0B8
##6F7264696E
7A6F6E61
##E0B898
##61736F6E
6469726967
##696B65
436865
52696368
676C65696368
D0BAD0BB
6C6574
617070726F
6F6666696369
6E756E
666F7274
##E0B8B2E0B8A7
646963
68756D616E
6C61746572
416972
##6164656D
##656375
6163746976696461646573
44656C
##D8A7D8B9D8AFD8A9
696E7465726573
70726F666573
6572616E
##D180D0BED0BC
##75726368
##616D696E
##D8B6D8B9
7369676E6966696361
##656E736F
74796D
D181D0BED0BED182D0B2D0B5D182D181D182D0B2
##D988D989
D8A7D984D8AFD988D984D98A
##D8B1D8A8D98AD8A9
##D0BBD0B0D181
706572736F6E616C
7465726D
D982D8A8D984
70726576
656E7473
7A696F6E69
##D8A7D8ACD8AAD985D8A7D8B9
##657374726F
##E0B988E0B8B2E0B899
##69626C6573
##D181D0BAD0BED0BC
7768656E
63616E64
##746F77
##6A6F73
D0BAD183
76C3A9
##697373C3A36F
##776F72
##64657274
706F727461
##D186D0B8D18E
##6E69636F
D988D984D8AF
4261
##69656C64
73656872
##D18FD0B4
686F6E
##63726970
##E0B8A3E0B8B7
766F6972
5856
D186D0B8D0BE
##D0B5D180D0B8
537572
##61677565
##696C6F
7075C3B2
696E666F726D6174696F6E
C389746174
767565
616765
##D98AD8B4
6E6976656175
##6C6965C39F
##706564
4D6174
73657261
##6C656D656E74
3438
73697465
D0B7D0B0D0BAD0BED0BD
D183D187D0B0D181D182
6F6E6C79
3535
##D8A7D8B1D8A7D8AA
D8A7D984D981D8B1
766563
##D8A7D8AFD98AD8A9
736572766963696F73
636F6E64
D0BFD180D0B0D0B2D0B8D182D0B5D0BBD18C
64657465726D696E
D8A3D986D987
##74616368
6A756761
##D8AED984
##D0BDD0B5D0B9
676568
4E6174696F6E73
D0BFD0B5D180D0B5D0B4
##6965727465
##74657261
##6DC3A9
71756172
##61676573
##D8B5D8A8
##69736D
696E697469
D181D182D0B0D182D18C
##E0B897E0B8B5E0B988
##D0BBD0B0D0B4
##706865
##D8A7D985D98AD8A9
##72616974
D0A1D0
D0BDD0BED181D182D0B8
##7A65696368
D8A8D8B9D8B6
##74656C6C74
##6969
E0B8A8
##616C616E
D181D0B5D0BAD180D0B5D182
D186D0B8D0BED0BD
##6573746976
6461C39F
##6C696E67
##6974C3A474
65696E67
##75737469
57657374
D0BFD180D0BED0B1D0BBD0B5D0BC
656E636F6E7472
696E74656E
D0B2D181D0B5D185
446976
C3AE
D18DD182D0BED0B3D0BE
6B656C
72657072C3A973656E74
##D180D0BED0BF
6D617469C3A87265
526164
##746F626572
6F7264656E
6D657375726573
70727A6564
##6F6D6173
##D8AAD8AE
##4E55
##69C485
417072696C
446172
426C
D182D0B5D182
7465616D
486175
6B6E6F77
##E0B988E0B8A7
D0B8D181
6E756576
70726F67726573
5779
6E7565766F
##656E746C696368
766172
##D0BBD0B5D0BDD0B8D0B5
D0B3D0BED0BB
4D656C
##6F6E6961
D0B5D0BDD0B8D18F
D98AD985D983D986
##71756572
##627374
##D988D8AA
4361
6875
D8A3D981
53746172
##61C3A7C3A36F
73756368
##72696F73
##D8BAD98AD8B1
D0BCD0BD
D0B7D0B2
6C6974
##62726573
656E6375656E747261
D0BDD0B5D0BED0B1
E0B89BE0B8A3E0B8B0
4D6163
##74656D626572
##D982D98AD982
##726174
64616C6C
##E0B8A7E0B8B2E0B8A1
416D65726963616E
5A65
##C3A972656E6365
556E6976657273697479
##616C6C73
766974
##69676572
##D988D8A7D986
736F6C75
6E6174757265
##646574
717569656E
7669656E65
31393839
66656D6D6573
##C3A46872656E64
6D6564696F
696775
4972
D98AD982
##6C6963616369C3B36E
##D0BED180D0B8D0B8
6D6D
C383
##697374656D
496E7465726E
##63756C61
53657074656D626572
##D0B4D0B5D180D0B6
7965617273
D0B5D0B6
64696573656D
6368616D70
##D8A7D8B1D8AF
##D8B9D984D982
##D8ACD8B1D8A7D8A1
656C6C6573
6C6963
D985D985
313833
##C3AA7465
64616E6E
76656E64
776F756C64
70656E64616E74
D8B3D986D8A9
##D988D8A9
616C75
##706F727461
D0BDD0B5D0BED0B1D185D0BED0B4
656E657267
67696F72
5461
##D985D8B9D98AD8A9
48616E64
##726972
##D8B5D8B1
64C3A9636973
726164696F
6B7572
D0B1D183
##6F72646F
72656475
6368656E
6465726E69
766F63
D09FD0BE
##696665
##C3A7616973
64C3AD61
4F63
##69676F
7072696F72
##74726965
7469747265
4D6574
##7269717565
496E7465726E6574
##E0B988E0B8B2E0B887
72C3A867
##D0B0D180D0B8
E0B980E0B8A1
##D18ED189
##6971756573
63617465
##C3AF
6C616E64
6F6273657276
706F72717565
D8A7D984D988D984D8A7D98AD8A7D8AA
6D696C69746172
646F7665
D180D0BED0B4
D0B2D181
657363726974
4D75
##7061727461
706F70756C6172
7075626C69
##6E696572
D8A3D8A8
64657369676E
##D0B8D0BAD0B8
636976696C
##6C6167
6368616E67
4475
##6E7465
##6174757261
576572
616E63
D0B5D182D181D18F
##7A6173
776F72
68756D616E6F73
##65737469C3B36E
7A6170
##70616E
##646974696F6E
7375697465
736567756E646F
D0B2D0BED0BFD180D0BED181D0B0D0BC
537472
696C6C
##D8B3D8B1
C39C626572
D8AAD8B1
##D981D8A9
D0BED182D0BDD0BED188D0B5D0BDD0B8D0B8
7669656C
##6F676F
4B61
##E0B8B6E0B887
6D6FC5BC
##6F77656A
6E6574
4D656E73
6E7465
D0BFD183D0BDD0BAD182
31393730
D985D8AF
536865
D0B3D0BED181D183D0B4D0B0D180D181D182D0B2D0B0
##3130
##6C6574
506572736F6E
D18BD185
##696C61
##4154
##6965727261
##D0B2D0B5D180
E0B896
617274C3AD63756C6F
626965
6C61766F72
##6A6172
C3A96769
##697374656E636961
##C58275
616B75
D0B3D0BED0B2D0BED180
72616D
##7374616E64
66656E
D985D8ABD984
5A75
696E746572707265
D181D0B8D0BB
D0B5D0BF
##E0B8ADE0B887E0B884E0B98C
D0B6D0B5D0BDD189D0B8D0BD
##62756E616C
7768657265
##77616E
##D181D0BAD0B0D18F
4C6F75
61637475616C
##D8A7D8A8D8B9D8A9
53747261
##7A656C
726976
53616E7461
D181D182D0B2D183
4675
D8A7D984D8A7D986
4D6974676C696564
##D0B1D0BED180
##D0BCD0B5D181D182
7365756C65
5456
D0B8D181D182
##72C3AD61
##D986D8A7D8A1
D8A8D985D8A7
##E0B8A3E0B8A3E0B8
427269
D0B4D0B5D18FD182D0B5D0BBD18CD0BDD0BED181D182D0B8
D8AAD8AF
426175
646F6E6EC3A96573
##D8ACD8A8
696F
726163
##746F697265
67696274
616368
3339
4B6F6D6D697373696F6E
73617961
##61737365
##D186D0B8D0B9
73616E67
49737261
4E6163696F6E616C
##756E64656E
6F66696369
6D6965
6578706C
##6C656374696F6E
656E7365
636874
6B656E
6D657265
##D8ADD8B1
73636865
##746976616D656E7465
6E6F7576656175
6465726563686F
636961
##7469656E
6E65676F
6D617373
627564
73C3A9726965
537069656C
##69656E6961
D0BDD18BD0BCD0B8
D8B9D986D8AF
##6D616E6E
66696361
##6D6574
##D0B8D182D0B5D0BBD18CD0BDD0BE
6B696C
61746175
616E646572656E
666F726D65
##616E636573
D187D0B8D0B2
42657265
6A756E746F
6361706974616C
##726964
D0B3D0B8
##746174
4575726F70C3A4
4A6F73
C582
616761696E
53747265
70726F796563746F
##6965737A
73686F77
C3A96E
526570C3BA626C696361
3434
##D8A7D982D98AD8A9
##77656E64
##D8ABD8A9
##D18FD0B2
636861717565
D0BDD0B5D0BED0B1D185D0BED0B4D0B8D0BCD0BE
D180D0B0D0B2
##69636B6C756E67
##6E6561
6E616D
##D8B4D8B1D988D8B9
##756C73
7468726F
##E0B8A1E0B988
706F6465
##62616E64
##6F6D62
##D0B0D180D0B0
3432
7369676E
6A65646F6368
##7765656E
3735
D0B5D0B4D0B5
736162
##D8A3D8A9
656A656D
##C3B66C
##D8B7D8A7D8B1
##D98AD983
##D0BED0B6D0B5D0BD
6D6F6C746F
##7769C499
7175616E746F
##65737361
D8A7D984D982D8A7D986D988D986
4B6972
E0B888E0B8B0
##77617265
D8A7D984D8AAD8B9
##D8B7D981
##6F637261
726174
D180D0B0D0BC
##74657265
6573747265
##C3B673
646168
##756E69646164
6F7261
436174
##677572
D981D98AD987D8A7
756E69
D187D0B5D180
##67696E
6E6F77
D8A7D984D8A5D986
##D0B0D0BCD0B8
636F6E74696E7565
417567757374
6D6F6E6469
5649
D0BAD0B0D187D0B5
576562
6D61727A6F
61676F73746F
6578616D656E
6578697374
##756465
##6973696F6E
54616D6269C3A96E
63616E74
64C3A9636973696F6E
D8A7D984D8B1D8A6D98AD8B3
##6369746F
6B6570616461
##796572
737565
70726F706F72
76617269
6976
D0B8D182D18C
C380
636F6D6D756E65
4F6B
D0B2D0BAD0BBD18ED187
776569746572
6B6C
D0BDD0B0D181D0B5D0BB
##647A
656172
D8A8D987
73656E74
D0B8D0B5
##E0B89EE0B8A3E0B8B0
##7175697065
79656172
616772
616E6F73
##D183D185
##64696F
6361757361
##C3A172696F
62616A6F
D0BAD0BED0BDD182
##657361
##74696D
646972656374
64656265
726570726573656E7461
D181D182D183D0BF
##D988D984D8A9
646F6E63
6365726361
##756A65
E2809C
##706F6C
4143
65717569706F
4772756E64
E0B8ADE0B8A2
333030
6163756572
##7765697365
7465727261
##68616C62
73746174696F6E
##626C6963
D0BFD0BED181D182
##6167656E
70726F62
##6AC4856379
4A616E756172
##C582C3B377
##776164
6B6F6D6D656E
##616D616E
69686E
446176
D0BDD0BED0B5
6D616B
##C582C485
42616C
C3A96C6563
##D8B9D8A7D8AA
5061756C
64656E74726F
D8A7D984D8A5D986D8B3D8A7D986
##D8A7D8B0
D182D0B2D0B5
6974616C69
##D8B9D8AFD8A7D8AF
4E6F76656D626572
73656D707265
##D8B2D98AD8B2
C3BC6E
D0B7D0B0D0B2
536F6C
427261
##D0B8D182D181D18F
616E696D
##6E6163
706564
6B6177
73C3B36C6F
72C3A9706F6E
636F756E
696E6469
576972
D8ADD8AAD989
6C656E
7265636F6D
696E7465726E6174696F6E616C65
##E0B8B4E0B894
##D0B8D187
616C696D
##D0A0
##7572616E
D18FD0B7
##6F77616E79
D181D18C
##E0B8A3E0B98C
726563686572636865
##D8B5D8AF
4B72
636F6E6E
##6B6172
##6F72696F
6573746F
767261
##6E616A
##737A
D18FD0BD
6D616465
D0BFD0BED0B4D0B4D0B5D180D0B6
726573706F6E736162696C
31393838
##6167656D656E74
636F6E6A
D0B3D0BED180D0BED0B4
47756572
6B616D
D984D8A3
##69736D65
756C7469
##6F726961
6174656E
D8A7D984D8A8D984D8AFD8A7D986
7A616B
61626F7574
4D63
##C3BC64
736D
##D9A9D9
##6E6579
76696572
696E74726F6475
##D0BED182D0BED0B2
61747261
##C3A76F6E
D0BFD180D0BED0B5D0BAD182
50616E
##697363686572
65737365
526F73
##74696F6E656E
##69746173
616C747269
##D8AED8AFD8A7D985
D183D187D0B0D181D182D0B8
C3A96368
647572696E67
D0BCD0B5D180
456E7477
6D616E74656E
4368696E61
D180D0B0D181D0BF
##454E
##73636865
##75656C61
D0BED0B1D180D0B0D0B7
546F64
726173
D0B0D0BCD0B8
##D0BCD0B5D0BD
##D0B0D0BBD18CD0BDD18BD185
D981D8A5D986
##D09A
D0BFD180D0B8D0BDD18FD182
D18DD182D0BED0BC
66617A
##696E67656E
##656E63696173
63756C74757265
4672616E6B
676172616E7469
##6F77796368
3433
637A6173
D0A0D0BED181D181
D8A8D987D8A7
D0B0D185
76616C65
6573746F73
##657265696E
62C3A9
##D0B5D0BAD181
636F6E636570
##656E74656D656E7465
54656D
##D8A7D986D98AD8A7
70657469
##E0B896
##E0B8B5E0B989
636F6E76656E
6B6C65
5365637265746172
6C61626F72
D181D182D0B0D0BD
7065717565
D8A7D984D8ADD983
646965736573
65727374
##686E65
##736B61
##697363
##D0B6D0B5D0BDD0B8D18F
417261
##657474
496E7465726E61
##63616E
D0BFD180D0B8D0BC
D0BED180D0B3D0B0D0BD
616F73
6F667265
32303139
65727374656E
##756461
##616C6961
##D986D8B3D8A8D8A9
776562
##6174757265
##6D656E746F73
##666F6973
616A
506F73
##616872656E
##6F7279
42726173
77696C6C
##6173736572
77656E
6170706172
74C3A963
7468657265
706575
7073
##77696E
64696D
3431
##D0B8D0B1
D985D8B4
##657369
D8ADD982D988D982
##796A
4A6163
72C3A973756C7461
7365C3B1
6D696E697374
6E6174696F6E
D0BFD0B5D180D0B8D0BED0B4
D0BFD0BED0BF
74696D
74696E
##414C
D181D0BED0B1
##D985D985
D186D0B8D18F
##D8ADD8AA
D0B1D18BD182D18C
D8AAD8A3
70656D
657463
##D0B5D0BDD0B8D0B5D0BC
##7A656974
64696E
##D184D0B8
5375706572
D181D181D0B0
D8A7EFBBB9
##756C6C
D0BDD0B0D0BFD180D0B0D0B2
7265756E
6173706563
##63686173
556E7465726E65
D8A3D98AD8B6D8A7
D0BFD0BBD0B0D0BD
6E6F747265
666F726D6174696F6E
736F7572
##706573
D182D180D0B0
##D984D98AD8A7D8AA
4761
D18ED189D0B8D0B5
##D985D8AF
##6C6C65
D0BED0BBD18E
##666F6E
D0BAD0BED0BDD181
##666C
746563686E69
##6B6C
D0BDD0B0D180D0BED0B4
706574
##D8AAD985D8B1
D180D0B5D0B4
64726569
6573746173
D8A7D984D8A7D982
72C3B377
##D8A7D8A8D8A9
6265747765656E
D988D8B3
##6562656E
6C6F69
##6F7572636573
6174696F6E73
D0B3D0BED181D183D0B4D0B0D180D181D182D0B2
646966
6D616A6F72
##6E696F
616374696F6E
##61737461
556E61
##D8A7D8A9
##63656D656E74
546F7572
##D98AD8B7
##74656D627265
D983D8A8
##D8ABD98AD8B1
##E0B8B2E0B8AB
446F6E
6573706563
72C3A1
##6F6479
4D616C6179736961
666F6C6C6F77
##6F7266
3439
D0BED0BCD0B5
##D0B2D0B8
D0B8D187D0B5D181D0BA
6E6164
66756E63696F6E
6F63637570
##70656C
436F70
6861636961
66696E61
71756572
466572
##6162616E
626C616E
##61736564
D8B0D8A7D8AA
D182D0BED0BBD18CD0BAD0BE
63616E616469656E
6B6F73
##C3A86E65
6D617465726961
726569
70726573656E74
66616D696C6C65
##65727365
6C656164
696E646570656E64
##697474C3A0
494E
63656E7472
##D184D0B5D0BAD182
46616D696C
##C3B474
6B6172
##D0BED0B6D0B5D0BDD0B8D18F
7175C3A9
6F6E6C696E65
313830
6A65676F
##D183D18ED189
##D0B6D0B4D0B0D0BD
4167
57696C6C69
6566666563
C3A97175697065
436F6D697373C3A36F
C3A9746169656E74
73776F
C3A16C
4956
##D0B5D182D18C
6265737465
6D75736963
636974
506173
656E73656D626C65
D8A7D984D8B6
##756E7461
##707565737461
3437
496E7465726E6174696F6E616C
42616E
6F626A6563746966
##D186D0B8D0BF
D988D8B1
D988D987D988
676F7665726E
6279C582
4369
646F6D61
##74686F
3532
7374616E
73656374657572
##6D74
7769C499
##76697369C3B36E
3531
##74726F6E
706F73736962696C
6572656E
##D8B5D988D984
C59375767265
##696C6C6572
676F6C
69717565
D0BBD0BE
##7669656E74
##626173
496E7374697475
3634
70726F66657373696F6E
48656E
##D8A8D8A7D8AF
70726F626C
43697479
736978
466562
31393630
50696572
##6E6FC59BC487
##72696572
##6973746F
616C67756E6F73
##D8A7D8B3D8A9
##6F7068
##7A656E6965
6B616E
48756D
75736564
6D6F646572
616B616E
##D983D988D985D8A9
##E0B8A3E0B8B5
##726574
##616C6F67
##D8B9D8B6D8A7D8A1
##D183D0BCD0B5D0BDD182
506C616E
6E6572
##696E6461
6F626C6967
61696465
3436
##D98ED991
D183D181D0BB
D180D0B0D0BCD0BAD0B0D185
##696C6C65757273
6D756A65726573
706F696E
##6F776F
D0B4D0BED0BC
##D0BED180D182
##D8B9D8A7D988D986
##D189D0B5
5265707562
6D656469616E7465
70726F6475697473
616C6C6572
6672616EC3A7616973
##6A6173
536F757468
##70617274
63617465676F72
436C7562
63616E646964
##D8B1D983D8A9
##61726368
D186D0B8D0B0D0BB
##D8A7D8B1D98AD8A9
7468726565
7265637572736F73
4A75
64657373
646973636F
636F6E6365726E616E74
70726F64756374696F6E
D8A7D984D8ABD8A7D986D98A
D985D8ACD984D8B3
70726F6772616D6173
D18FD182
6D697373696F6E
53656D
##7769C4857A
4974616C6961
63656E7472616C
77737A797374
73657573
##63697065
##D187D0B8D0BD
##69656E73
##63696E
##65726361
66616365
##666F7265
##6773
D985D983
##494E
6B65696E65
686563686F
##D0B3D180D0B0
6F74726F
4669
D981D98AD985D8A7
6E6172
63616D62
D988D984D8A7
6E6174696F6E616C65
##6F6E65736961
##6265726E
6469666572656E746573
D0BDD0B8D18F
##C3A9726F
##73747261
##707562
61726561
696D706F7274616E746573
7A7572C3BC636B
70726F74656374696F6E
757365
456C65
##6D656E7461
##6C696F72
5379
31393836
6F63636173
656E7669726F6E6E656D656E74
##69646573
##E0B8ADE0B8A2
D0B3D180D0B0D0B6D0B4D0B0D0BD
##D0BDD0B0D0BAD0BE
62657374
7468656E
77656C6C
666162
##7368
76697461
##D0B0D182D0B0
D0BFD180D0BED0B4
6265736F
D0B5D181D0BBD0B8
D8A7D984D985D982
31393837
##D0B8D182D0B5D182D0B0
##636A61
5469
##656E746174696F6E
D0BFD180D0BED186D0B5D181D181
6D6F62696C
##4943
556E6965
6DC3BA73
##696E6465
657869737465
##D181D182D0B0D0BDD0BED0B2
C3A97461626C
77696E
48657272
7072696D6F
4A756C
##6573746976616C
##7A6F6E
##D0B1D18B
666F756E64
D0AF
##6F706C65
76696C6C616765
7A6177
57696C6C69616D
##746965
D188D0B8D180
617267
##7465726F
##6C6561
##C3AA73
617261
6E69C3B16F73
##7269657572
6F6E73
##D0BFD0B5D180
6C6579
7A7A61
526564
707265736964656E7465
D8A3D8AED8B1D989
636F6D706172
##696175
6D6F6E6469616C65
D0BFD180D0BED0B8D0B7
447572616E7465
6D696C6974
766F6C7461
##6D6167
##D8B1D98AD8A8
696E7374616C
##74696572
##70656E64616E74
D0B4D0BED0BAD183D0BCD0B5D0BDD182
736369656E
62657273
617563
4344
7761
##D0B2D0BED0B4
##6578
6C756E67
##D0B5D0BAD182D0BED180
736567757269646164
##7469656E74
686175
766964656F
697A
6F626A6574
D187D0B8
57616C
656C6C6F73
##D8B9D98AD8A9
64696369656D627265
C3BC72
7A6F737461C582
536B
##68616C74656E
##74696F
706F6C69746971756573
##D985D98AD986
646566696E
##7572736F
63696572
6D6F67
##6963687465
D18FD0B7D0B0D0BD
53696D
##D0BED0BDD18B
73707261
6570
427572
D8AAD8B3
3533
##6C656765
686F74656C
737365
6B7261
636C75
##616C74756E67
6F637570
44657574736368
626564
313831
63697474C3A0
7374617465
D0BCD0B8D0BDD0B8
4F70
##746F677261
##766965
73696D696C
6D6574747265
73696D706C65
6E6176
70726F73
5849
##C3B36A
44696573
7468616E
##62656C
##686172
D0B4D180D183D0B3D0B8D185
61706C6963616369C3B36E
4DC3A9
76656C
D0B6D0B4
6375616C7175696572
6379
70657264
706C65
5072696E
427573
##D0B8D180D0BED0B2
##6368696564656E
D0BDD0B0D186D0B8D0BED0BD
##74C3A0
6173736F6369
D181D182D0B2D0B0
6D616E657261
##75746F73
5061726B
6172746973
6D61676769
6D7572
##D8AED8AFD985
69656E74
52757373
##D0B0D0BBD181D18F
31393835
##7869636F
##626C6F
64697269
D0A1D0A8
616C6C656D
61747465
D0BAD0BED182D0BED180D18BD185
65647563
D180D0B0D0B1D0BED182D18B
##7472756374
D0A1D0A8D090
##746F726961
4672616E636973
C3B4
4D696E6973746572
D0BED0B1D180D0B0D0B7D0BED0B2
##626968
6365727461696E73
##D8A7D8B9D8AF
6573746172
D0B7D0B0D0BF
##4143
##6AC48563
4D6F73
6B6E6F776E
7465696C
D093D0B5D0BDD0B5D180D0B0D0BB
4E6F727468
D0B0D0B7D0B0D0BD
76657274
74726162616C
4575726F
6E6F7576656C6C65
7369676C6F
E0B983E0B8ABE0B989
##72696F6465
D0BDD183D18E
726967
617A
4B75
##697361
##676173
D8A3D8AF
##D984D982
6F726967696E616C
##68756E
566963
##D9A0
44656E
##D188D0B8D185
72656C6163696F6E
706F636F
D8A3D8ACD984
45737061C3B161
##7A796D
70726F6772616D6D6573
70C3A972696F6465
686973746F7269
736C61
6F6D
##6A6F7572
626566
67C3A9
61646170
D0B8D181D0BA
D984D8AD
##697269
6DC3A1
##C3AD74756C6F
4665627275
##6F6C617265
##74696573
##D985D987D988D8B1D98AD8A9
##696E6F73
636F6C6C
D0B3D0BBD0B0D0B2
##626974
##E0B8B1E0B8A7
C3A16C62756D
736369
D8A3D983D8ABD8B1
##7A74
6D6572656B61
696D6D6572
4D757365
##6C6576
67C3A96EC3A972616C65
736561
##D987D8A9
##616479
68696768
C3A97175
##6B7465
656175
D0BDD0B4D0B0
6D656E7469
70726F626C656D61
D181D0BED0BED182D0B2D0B5D182D181D182D0B2D0B8D0B8
64616D6974
71756F
D8AAD8AC
72657370
6D6F64656C
54656368
4772616E64
##747279
3536
##696C74
6E61747572
##D0BAD0B0D0B7
6C69627265
7175657374696F6E73
##656C79
C3A1726561
##D191D182
##C3A872656D656E74
##D8B3D98AD986
6968726572
##696469
657268
4368616D70
D0BED180D0B3D0B0D0BDD0B8D0B7D0B0
C396
707265706172
6D65726361646F
6F676E69
##69746F72
##D0B8D0BBD181D18F
##D8B9D98A
62726974
666169
##61626F72
D8A7D984D8B9D984
4265726C696E
##7A656E74
3534
54696D
D8B3D986
##63656E74
4765726D616E
7669737461
##D0B1D0B5
666562
##D8A7D8B3D98A
##7375
##707574
##736B6965676F
##E0B8B1E0B894
637AC499
##D0B2D0B0D0B5D182
##6976656E74
4A6573
5374616E64
747261697465
657374616261
##D8A7D984D8AA
##616D6F
426569
##7175C3A9
6C69656774
D988D987D98A
##D982D8AFD98AD985
##696E67746F6E
77C3A46872656E64
CC81
3539
63656C7569
##414D
##D988D8A7D8B1
##C5847374
##4953
D8ABD985
##D8A7D985D8A9
4E7565
61756E717565
##6C61636B
##61746F7269
70617A
##E0B8B1E0B881
67656D
726570726573656E74
##656E74726173
74656D61
##6973656E
##756E6573
66616D696C69
736563746F72
##7469736368656E
7369656E646F
65737061C3B1
456E747769636B6C756E67
##D181D0BBD0B5D0B4
6E656E
##6C696572
##6B6574
736F74746F
D8AFD8B1
486973
##D0B0D0BBD0BE
7363686F6F6C
##7A656A
5858
D0B4D0BED0B2
6B656D
6F76
7365707469
D0BED0B6
42756E64
D185D0BED182
7265736F6C756369C3B36E
4D656E736368656E
D8B3D983D8A7D986
48617573
6865757465
##7461646F73
65726E
##616B69
##79616C
7370C3A96369616C
777A
D8AAD988
##666F6C67
##D98AD982
##494949
D0BAD0BED0B3D0B4D0B0
61706F796F
706963
D180D18B
##756572746F
70657274656E
##7573696F6E
C3A9747564
D8A8D8A7D984D8AA
6D61726368C3A9
50726F66
6D69656E74726173
3537
66696E6F
##E0B8B1E0B895
##646F7365
69616C6168
C3A87265
D183D18E
61747461
63616D6269
##62726F
68656C
417267656E
##D8A8D986
706F74656E
70726163
C3A97269
##7AC499
##6168616E
4953
6E64
616974
7469656E656E
##72696562
D8AAD8ADD8AA
706573736F
706C6F
6578656D706C65
4461766964
##7A796368
68616365
D984D8B9
536F6D
6861626974616E746573
6D7569746F
556E6973
##74726173
##617069
64617465
61C3A7C3A36F
6A61
3538
D0BAD0B0D187D0B5D181D182D0B2D0B5
D8B1D8A6D98AD8B3
6D6F7274
4164656DC3A173
70726F6365736F
6C65747A
D0B4D0BED0BF
6E6F76656D627265
##76616E6F
6D6F6973
74656E6572
5363686F6F6C
7A7573616D6D656E
726573706563746F
646F72
6E616B
##7475616C
61766572
313832
##6E6F63
6D6563
517565
6E6F727465
##69656E636961
##D0B8D18E
##6F6CC3B367
D0BCD0B8D180D0B0
##61676E65
##72657373
D0B1D0B8
77696368
496E7465726E6163696F6E616C
63616D706F
D181D0BBD183D187D0B0
##70617274656D656E74
676162
##74656C6C756E67
416E746F6E
7374617461
6D65646961
##6E6965C5BC
656C6567
##D8A7D8A8D8A7D8AA
##D0B8D0BDD18B
31393435
657267
##61726473
61626F7264
##6368C3A4
67617261
636F6E73756C7461
D184D184D0B5D0BAD182
706F7374
7370C3A4
536F6369
##756E6461
##68616E64
666F72616D
726F73
736174
476F626965726E6F
##D187D0BDD0BE
73696C
647A6965
416E67656C
456E67
6D696C6C6F6E6573
##E0B882E0B8ADE0B887
616272696C
746F75
##6BC5826164
466172
31393834
6D696E69
##6B656872
6170706C69636174696F6E
747261646974696F6E
546578
416C6578
##D8AFD98AD8AFD8A9
53747564
74726176C3A973
44616E73
63656C6C65
D985D8ACD985D988
72656C616369C3B36E
726573736F7572636573
6D79
706F69
##D8AAD98AD986
D181D0B8D0BBD0B8
313739
6465626572
6179616E74
##D186D18B
##65636572
6361706974
##726F756E64
7967
##696E6572
##C3A46C
696E766573746967
676567
C3A9706F
6D656E6A616469
7472616E73666572
7675
746F6E
43726973
##D0B0D180D182D0B0
##D0B0D181D0BDD0BED181D182D0B8
##C3BC626572
467565
##746F6E636573
4A6F73C3A9
74C3A972
65706973
636D
D095D0B2
4176
62657265697473
73617475
696D706F7274616E74
##D8ADD983
4279
696E74656772
717561747265
636F6C6C61
##706F77
D0BFD180D0B5D0B4D181D182D0B0D0B2D0BBD0B5D0BD
6D656E73
6C696E67
4665726E
656A656D706C6F
6C69676E65
4574
6E61747572616C
D0B2D0BED180
##68617573
72C3A96475
736974756174696F6E
756E67656E
6578636570
436F7572
65786572
D8A7D984D8ACD985D8B9D98AD8A9
426F73
70726F636573737573
D183D0BF
636F6E6475
6672616E636573
496E646961
547265
##646F7773
7066
6F747261
73C3AD
6D6F6465726E
636F6E6E61
536172
##C3A97175
626563616D65
7A6965
7072C3A163
##4F53
616973
6F70696E
53696C
636F6D6D656E
4B696E
6D6F79
##7769636B
##6F7462616C6C
##C3A3
D0B7D0BDD0B0D187
696E646963
6A756E696F
##E0B980E0B882
##D183D0B6
62656175
D181D182D0B2D0BE
D0B3D0B4D0B5
D180D0B5D0B3D0B8D0BED0BDD0B0
##6D696F
##D8A7D981D98AD8A9
7175616C65
6C696D6974
646F6976656E74
65747761
736F6369C3A974C3A9
##6B747572
6F627261
707265636973
5374617469
##C3BC747A
E0B89CE0B8B9E0B989
636F73C3AC
##D8B7D981D8A7D984
##6369616C65
63656C61
D0B1D0B0
696E64696361
D8A7D984D985D8B5
##746572696F726D656E7465
D8A8D8A3
506F727475
##D8B9D984D982D8A9
4D79
##6E657572
D090D0BD
##95E0B988
##D181D0B0
666163696C
73697374656D
416E73
537A
##75746573
706170656C
746572726F72
E0B8A7E0B988E0B8B2
706F736974696F6E
646169
6967656E
##D180D18BD182
##61636A61
546F6D
626F6C6568
##6768
46696C6D
48616C
736561736F6E
31393735
##796C65
##63726974
##637A6173
4F7269
6F7267
656D706C65
D8A3D988D984
##676E
##76696C6C65
6F726967696E65
D0B5D0B3
436F6D6D697373696F6E65
D0B3D0B5
D8AAD984D983
##D8AFD8A7
D0BFD183D182
7072696E636970616C6573
D985D986D987D8A7
D8A7D984D982D8B1D8A7D8B1
6F6E6465
656E7175
61697265
##D8B7D8B1D8A7D981
C5BC79
D183D0B1
##757361
74656E74
63657578
##6B6F6C
##D981D984
6578706F73
##696373
##C3A46C74
62C49964
D187D0B5D0BD
##757274
72657374617572
62656D
4A75616E
70726F626C656D6173
##D0B0D0BBD0B8D0B7
646573656E
43616D70
E0B980E0B882E0B8B2
566972
##D0BDD0B8D0BAD0B0
D0BED0B7
D0BFD180D0BED181
6265696D
D0B0D182D18C
617373697374
D988D8A3D986
##6F746F73
65737472
##726F7373
61637475656C6C65
5A7573616D6D656E
##C3B66666
##D0B3D0BED0B4
64617461
6C65626968
456E747265
696E636C7564696E67
72616E
D0BDD0B0D185D0BED0B4
D182D0B5D180D180D0B8D182
626974
##656E6461
D8AAD982D8B1D98AD8B1
##656D626C
##63656A
7175656C71756573
##D8A8D8BAD98A
73696E6F
##706164
##746963616C
D094D0B6
74726F70
##6963696F
D0B4D0B5D0BBD0B5
##D9A9D9A9D9
##616374
D0BED182D0B2D0B5D182
##65646164
6E6168
##66C3BC
6D6573757265
##D984D98AD985
D988D8A7D8AD
##756C616E
C3A9636F6E6F6D69717565
31393832
6465636C6172
4C6965
##7475627265
##D0BED0B2D0B0D0BD
6361726163746572
D183D0BFD180D0B0D0B2
##6469616E
6D656E79
506F70
72C3B46C65
##D189D0B5D0BDD0B8D18F
63656C656272
70726F646F
##74697368
##74726167
6CC3A4
7A69
47616C
73796E
4B7261
D182D0B5D0BB
##D8B9D984D988D985D8A7D8AA
7365696E656E
D180D0BED0B2D0B0D0BD
##6E616B
##7A69656C
4A61
##C3B362
D181D0BED181D182D0BED18F
D0BDD0B8D185
6174C3A9
E0B884E0B899
##696C6C6573
66696E65
677275706F73
##63796A
##D8B4D8B7D8A9
64697365
5372
D0B2D0BDD0B5
##6C6974
D18DD0BAD0BED0BDD0BED0BC
747574746F
657273
64C3A9636C6172
D0A0D0B5D181D0BF
6265696E67
72C3B3776E6965C5BC
3632
D0B0D0BB
61706C6963
6461746F73
D8AFD988D8B1
D0BDD0B5D0BC
D0A0D0B5D181D0BFD183D0B1D0BBD0B8
D8AAD986D981D98AD8B0
777370
6A616D
426164
D181D0BED182
##D0B0D0BDD182
D181D182D180D0B0D0BDD18B
##6E696B61
##C3B16173
D8A7D984D8AAD8AC
736172
766572736368696564656E
343030
##617373656E
4F6666
6E6365
73697475616369C3B36E
537562
##D0B0D0BDD0B8D0B9
##696566
6B72
75C5BC79
##6F6C66
466F726D
617374
##D8B2D98A
6D616E6966
7365636F6E646F
C2BB
##D18CD18E
7265736964
##65726168
726F69
##67C3A9
506F64
43616C69
6567
##6F776572
D0BED0B1D18A
D0BED0B1D189
##63687473
##63746F72
61677561
6E657565
736567756E6461
##D8A7D8B3D8A7D8AA
##667477617265
##D0B5D181D0BFD0B5D187
4D656D
73656C627374
426F72
##6F776E
436F6D6F
D8A7D8B9
7465676F
50726F64756B
##D8B2D8A7D985
656D707265736173
##6F6C6F676965
53797374656D
D8A7D984D8A7D982D8AAD8B5
70726973
73656C65
636F6D7072656E64
477275706F
##6F646573
64657365
4D61726961
##D0B8D182D0B5D182
666174746F
66696C65
##D0B5D0BBD18FD185
6C61726765
736572C3A1
6B6573
##6962696C69646164
D181D0B2D0BED0B5D0B9
##636F6C65
##6C616765
656C696D
D181D18B
##6F77616E6961
616DC3A972696361
67616C
##68696E
##7865
696E74657276656E
##626972
##D8B4D8B1D98AD986
##D8A7D8B3D985
636F6E76
4B7265
656D7072657361
65737475
72656769C3B36E
6461726970616461
6163756572646F
6A756C696F
4A756C69
##D8A7D8A8D8B9
D0BED0B1D0B5D181D0BFD0B5D187
##756E7374
D8A7D984D985D8A7D8AFD8A9
646F6D696E
D184D0B5D180
63656E747265
##7175C3AD
##6369616369C3B36E
3031
##D986D8A7D983
62616E6461
D0BBD0B8D186
537461746573
##6E656F
4A6572
D184D0B0D0BA
4A6F7365
##D8AED8AAD984D981
706F75766F6972
##D0BBD18FD0B5D182
D0BDD0B5D0BA
6D656D626572
4365747465
766172696F73
636F6E766572
66696E616E6365
##616D626C6561
##E0B980E0B888E0B989E0B8B2
D0B8D0BDD182D0B5D180
31393833
C2AD
7175657374
##D984D983D8A9
##697A6F
##D0BFD0B8
6572737465
##6772C3A9
##69656E6E65
746563686E6F6C6F67
426564
##D0B7D0B0D186D0B8D0B8
##746F7572
7468726F756768
616E6369
D181D0B8D181D182D0B5D0BCD18B
6575726F706561
E0B982E0B894
6578706C6F
##D191D0BB
##7A696E
##6962696C65
##6F6D656E
72756E
##6F77616E6965
6B75
##4F4E
6661C3A76F6E
##7275636B
##637AC485
6D6163
636F6D6D756E61
726169736F6E
##D8A7D8A6D985D8A9
##616E676572
##6D696E61
##756E696F6E
##626175
##6F7761C582
##61696B
6A6F7565
##6573746173
D180D0B0D0B7D0BBD0B8D187
736573696F6E6573
496E7374
466972
736F6C64
4E75
74616BC5BC65
D0BAD0BED182D0BED180D0B0D18F
576573
C3A974616E74
757375
6261636B
6D616E79
4B696E67
676F626965726E6F
6D656E7473
72C3A973756C74617473
##697A65
D097D0B0
D0BBD0B6
##7265726F
7377
62696E
##706C6573
##69656E7465
##6A656374
##647A6965
6D757373
##D982D8B1D8A9
D0BED0B5
##4144
4D756E6469616C
6F637475627265
3835
##7572656175
##72696D
D8A7D984D985D8ACD984D8B3
##D0B5D186
73756D
7A7573
##636F6D
6D656E747265
3631
4CC3A46E
##6F7761C487
636F6E7472C3B46C65
##7A6564
616C6C6F
44657265
6E696E67
31393530
D186D0B5D0BBD18FD185
C384
##72656173
636F6E646974696F6E73
##6B696E
##C3A87465
C59A
7661726961
##696E7465
6164656DC3A173
6D61796F
EFBB
64C3A9627574
D8A7D984D8A7D8ACD8AAD985D8A7D8B9
##636972
6167726963
##6A6F757273
D096
##D8B3D984D8ADD8A9
6672616E63
D0B1D0B5D0B7D0BED0BF
6A616E
706965727773
636F6F70
D8A7D984D985D8AAD8B9D984D982D8A9
636F6E746578
616D6269656E7465
##77616C
##696D656E74
42616E64
C3A96CC3A9
7365707469656D627265
636F6E73657276
6D697373
##D8B0D987
##C3B3C5BC
D0BDD183D182
54656E
D0BED0B3D0BE
6F7274
646F6C6C
##617479
##D8A7D8B1D98AD8AE
626F74
D8A8D8A7D984D985
##D981D8B6
##666F7264
D8ADD8B3D8A8
##726172
6D7563686F73
63696F
646176
706572736F6E6E656C
436F6D70
616E636F7261
64C3AD6173
##C3A167
##636964656E74
796F
##627573
##656E7361
617465
D8A7D984D982D8B1
6C6569
706172746963756C696572
6E7A61
E0B884E0B8A7E0B8B2E0B8A1
6D61696F72
##75726572
73746573736F
41726368
64C3A966
D0BFD0BED181D0BBD0B5D0B4
555341
##69656D627265
##D0B0D0BBD0B5
##756E6F
6C7574
D0B2D182D0BED180
D8A7D984D988D8B7D986D98AD8A9
##657473
##D986D8AFD8A7
6C61646F
4967
6A75696E
31393739
##65727665
736964
4672616E636961
##C3BA626C69636F
##D0B0D182D0B8D0B2
57696E646F7773
##7A6F73
D98AD8AAD985
D9A2
4553
696775616C
D985D8B5
42726173696C
##6F7765766572
646973706F736974696F6E
61707065
747469
D0A1D0BED0B2D0B5D182
6E616C65
##C3BC7373656E
31393831
D0BFD0BED0B7
D0BAD0B0D0B7
6569
D0BDD0B0D0BB
6E616D65
C3BA6C74696D6F
##6974656E
616C746F
##616E646F6E
D988D984D983
##656C686F
426F6C
##6F67656E
6361736F73
##6F6E6965
5052
737069656C
70726F76696E636961
3633
##61676572
D183D0BD
##616E746173
##D18FD0BD
4A61687268756E
##656E636573
##E0B8A3E0B8B2
766F79
##7970
657370C3A8
##6F726473
##D8ADD8A7D8AF
6465646963
6C69737461
##6D69656E746F73
6C6C6576
D8B3D984
D0BFD0BED0BAD0B0
5A77
69726573
D0B1D0B5D0B7D0BED0BFD0B0D181D0BDD0BED181D182D0B8
4166746572
6F686E65
##D8A8D98AD8A9
7A6E616A
636F6C6C6563
63756174726F
##62617465
##61626569
617A696F6E65
##D0B1D0BE
D18DD182D0B8D185
456E6465
7A64
73756A6574
D187D0B5D0BBD0BED0B2D0B5D0BA
##686962
4F7267616E69736174696F6E
6C6172676F
616363657373
##C59B636965
##C3AD76656C
4173616D626C6561
686973746F726961
D098D0BD
6A757374
##D98AD8A7D98B
##D8A2
D181D0BAD0B8D185
D982D8AFD985
D090D0BB
706F737369626C65
6D65736D6F
636F6D70657469
74797065
C3A96D656E74
6D756572
##756261
4D696E697374
617469
##61676E
6B61776173616E
##D986D988D8A8
74C3A0
656E65726F
D0BFD0B8D181
D0BED0B1D189D0B5D181D182D0B2
526576
##C3A4736964656E74
##616C6F
##E0B989E0B8ADE0B887
313530
##616E796368
537065
D0B4D0BED0B1
70C3A172
##D8B2D8A9
D0B6D0B8D0B7
##726F64
6F66667265
##657468
436C61
##D0B8D187D0B5D181D0BAD0B8D185
##67656D65
##696F7573
##D98AD8B1D8A7D986
##7469656E65
706F7369626C65
53616E74
##6C656A
426179
66657374
69656E
696D6D
5345
6F74
D182D0B2
5043
##D8B6D8A7D8A1
68617269
70696E
54726F
##756E6369
##656E7475
##C499647A79
##D8B8D985D8A7D8AA
D0B7D0BDD0B0
D0BAD0BED0BCD0B0D0BDD0B4
##627572
##E0B8B2E0B8ABE0B98C
737570657266696369
##63696461
##D0BCD0B5D0BDD182
736963
76616E
D0BCD0BED0B3D183D182
636170616369646164
##E0B8A5E0B8B2E0B8A2
677565727265
D0BFD0BED0BBD183
706F6CC3AD7469636173
6D6972
##696774
7369C3A8
D0BDD0BED181D182D18C
##66616E67
##4944
6575726F70C3A9656E6E65
73756F69
63686566
D0B4D0BED0BBD0B6D0BDD18B
76657273696F6E
54726962756E616C
##677565
D8A8D8B9
61726368697465
746F756A6F757273
##616E79616B
747261747461
746162
4F626572
696D706F73
##7A696F6E616C65
6D6963
706172746573
##66C3BC687274
6E6F7669656D627265
636F6D656E7A
6E6F726D
##6F6E7465
D8A7D984D8AAD982
##D181D0BAD0B0
D0B5D0BB
E0B984E0B89B
737175
637275
##E0B8B4E0B895
65787472
6A6F75
##646974
7465636E6F6C6F67
##D988D984D988D8AC
73747275
##D180D0B0D182
42657374
C3A97461626C69
74617264
5069
##E0B984E0B894E0B989
D181D0BED182D180D183D0B4
##D8B3D8A8D8A8
527573
##77656A
##7269636874
##736B69656A
696E646976696475
D986D8B3D985D8A9
4D696C6C
6272616E
646576656C6F70
##61636874
##D186D0B8D0B0D0BBD18CD0BDD0BE
616465
##D985D8A7D984
3935
616E64657265
##6F6761
6C65676973
D0BDD0B0D188
D8A5D984D98A
74796C
656C6C61
526168
4D69636861
##666961
6E75657661
D98AD983D988D986
7370C3A4746572
7468656D
74656D706F72616461
726965
##616861
D0BDD0B5D0BAD0BED182D0BED180
##6974616E
6772C3B6
##666665
D09CD0B5
656D706C6F69
D183D181D0BBD0BED0B2
##6F6D69
496E647573
D092D0BE
7461626C65
76C3AD
68C3A1
D8A3D985D8B1D98AD983
4643
##686F6C
706F696E7473
6465757869C3A86D65
696E666F726D
6D617273
##726167
31393738
66696369
73747265
726F75
556E69C3B36E
D180D0B8D0B2D0B0
66616C6C
666F727465
##637A61
D0B2D0BAD0BBD18ED187D0B0D18F
##636F7570
507562
627572
C3A97261
436861726C6573
D8A7D984D8AFD988D984D8A9
7461726465
31393733
6672656E7465
##6865696D
##74616E
616761696E7374
D984D8A5
##64616465
636F6F7264696E
6A75737469
726F70
526174
##D8A7D8B1D8AC
416C6C65
##667465
D0A1D0BED0B2D0B5D182D0B0
##6372696D696E
D0BDD0B8D187D0B5
636F6E73656775
D986D8B3D8A8D8A9
50726F6A65
64696365
68616C74
4C6561677565
##697264
636F7570
66757475726F
##E0B8ADE0B899
##D0B0D0BBD18CD0BDD0BED0B9
D8A8D984D8BA
4175746F
706572736F6E61
D8A7D984D8A3D985D986
696E65
##6F7769
##6F72706F72
3636
##69676B656974
6DC3BC7373656E
##67756E67
616363C3A873
42657A
D986D981D8B3
6279C487
757265
##C3A174696361
D0B2D18BD181
##797365
52656E
##D8AAD985D8B9
6C616769
##D0BAD0BED0BB
4F6C
707572
D18CD0BDD0BED0B9
##63656E
756E6F73
536D
50616461
616C7461
626F72
454E
##696C6C6574
31393732
5377
48697374
##D982D8A7
706F727465
D0BFD0BED0BCD0BED189D0B8
##696B61
70617274696573
70726F707269
736567C3BA6E
73756173
##657479
526F6D61
6C61766F726F
##D8B7D8A7D8B9
D0B3D180D183D0BFD0BFD18B
D18DD182D0B0
61756D656E74
657870726573
6265666F7265
63756D
D0B1D0B5
556E697665727369646164
##6E656C6C65
7365766572
##6573746F73
##61746F7265
##D8A7D982D8A9
646F63756D656E74
6CC3AD6E6561
4E6567
646F6D61696E65
##D180D0BED0BCD0B5
646964
626F726E
D0BAD0B5
677261706865
##656C6E
##6F706572616369C3B36E
##6174697665
7072C3A973656E7465
76657262
##686173
73656E7A61
D0BED180D0B4
##696E6564
73657276697A
69686D
6D656E7461
53696E67
D8A7D984D8AAD8AD
6E6973
6A6F757273
537573
646973706F7369
64656C6C6F
##C3B66E6967
##727A65
7465727269746F72696F
6D6961
D18ED189D0B8D185D181D18F
6368657A
6E6F7465
7365696E656D
D8A7D984D8ACD986D8B3
##D987D988D8AF
6E6F6D6272657578
546167
696E636F6E
##6973686564
72616E67
66696E616C65
616469
6D756E69636970616C
C3B372
##6B616C
416DC3A972696361
##D181D0BAD0BED0BBD18C
C2A9
56657265696E
D182D0B5D0BD
D8B9D8B4D8B1
##D98AD984D8A9
73656465
31393736
##E0B8ADE0B881
##D8B6D985
D98AD8B4
63617265
656967
##D988D8AFD8A9
706572696F646F
7175656C6C6F
736169736F6E
##74616D61
##626563
63C3B4
##D8AAD8AF
436F6E76656E74696F6E
##D0B1D183
44696F73
636F6E736964657261
68756D61
7473
D09FD180D0B5D0B4
686E656E
D988D984D983D986
6E6575656E
##C59B6C69
736F6C696369
##7072657373696F6E
44616C
##E0B893
##82AC
7A7567
7175616C6974C3A9
D8A7D984D8AAD8AF
6573747261
6573747564
D984D983
D181D0BDD0BE
72657469
656E746F6E636573
##D8AFD98AD8A9
##D180D0B0D0B7
6D6F6469666963
C3A9736F6C7574696F6E
446575747363686C616E64
E0B980E0B888
##6269C3B3
D18DD182D0B8
7061647265
##727A79
6368616D
5061727465
##7461746F
##D8B1D8AC
##63756C6F
696E7465726E6174696F6E
416C69
6E6175
666F6C67
526F62657274
##7A7A
666C65
D0BBD0B5D0BDD0B8D0B5
656A6563
##69746574
41726D
C3A472
D0BDD0B8D0B9
7768696C65
68C3B6
##D988D8B7
D0BED181D0BED0B1
##C3A16C
D985D8B4D8B1D988D8B9
70C3BA626C69636F
73746162696C
D8A7D984D8B1D8B3
6D616E69C3A87265
##D0BED180D0B0
556E7465726E65686D656E
5072C3A973
##69676C696F
##D0BED0B2D0B0D0BDD0B8D18F
##74656C6C
706F73746F
706164
E0B982E0B894E0B8A2
75626963
636F6D70726973
746F70
434E
E28094
##7175656C6C65
D0B7D0B8
736F6369616C65
626F7468
64656269646F
66696E64656E
7269636F
D0BED0B4D0BDD0B0D0BAD0BE
64C3A963656D627265
7475747461
D0BFD180D0BED184
D0A1D182
42657265696368
70656F706C65
##76696E67
##756C6573
766173
##D8ADD98A
##D0B8D187D0B5D181D0BAD0BED0B9
##C3A86C65
D0BFD183
D181D0BBD183D0B6
##61747469
637570
63696E636F
70726978
##6164616D656E7465
D0B4D0B6
##65646F72
67726164
6170726F62
74796C6B6F
D985D8ACD8A7D984
C3A073
76616C6F72
E0B881E0B8B1E0B89A
426F6E
62616769
##7761C582
D0B7D0BC
49737261656C
4B616E
6F70706F73
6174747261
566F
##76696C7570
##D183D18ED182
D095D0B2D180D0BED0BF
##D0B2D0B5D181D182
6175746F6D
616279
##7075626C69717565
6D756E69636970696F
636F6C6F72
666F726D6572
7574696C69736174696F6E
##67756E616B616E
43726F
7369677569656E7465
D8A7D984D8ACD8B2
31393734
##D0B8D0BDD0B5
D8A3D8BA
687569
##697373656E73
E0B980E0B8AB
D0B0D182D0B5D0BBD18C
##696C6573
73696E676C65
6568
D8ADD8AF
##C3A16D
D181D0BAD0BED0B9
##686F66
65646966696369
##7574736368656E
62656B616E
456E676C
##D986D981
##616365
##6C696D
61797564
D0BAD180D0B5D182
61757261
4A616D6573
70726F6772657373
##6475636174696F6E
4D6F6E74
##74696D65
616E696D61
D0BED0B1D180D0B0D0B7D0BED0BC
6C69636865
6469737075
##74616461
D0B4D0B0D0BB
53636F
616E646572
D18ED189D0B5D0B9
636F6D756E65
7072C3A963
D0BBD0B0D182
##C3A775
D0BCD0BE
7465727269746F
6E756D626572
D181D0BAD0BED0B3D0BE
##797374
D182D183D180
##D982D8B1D8B1
42696C64
##D988D985D98AD8A9
##6166
##6B746F72
436F756E7479
##D8B3D8B3
3939
746173
4C69626572
7376696C7570
636F6E636C7573
D0BAD0BBD18ED187
736572696573
D0BCD0BDD0BED0B3D0BE
##D187D0B8D182
656D70
47656F726765
##6A6F757264
##6A6F6E
72696F
6C61696E
D985D984
73616D65
##D8A7D8ADD8A9
##6AC3A0
D0B4D0B5D0BAD0B0
##74727A
7472616E73706F7274
E0B8A0
63617369
64696C
##E0B8B1E0B881E0B8
##756E6465
##63C3B377
3638
D988D8B2
##D0BDD0B5D0BC
##656D626CC3A965
D0BED0B1D0B5D181D0BFD0B5D187D0B5D0BDD0B8D18F
4765736368
657370656369
4C6F6E646F6E
6562
7072657373
D182D0B0D0BD
D8A3D8B9
6974616C
696E67726573
D183D182
4F706572
50726F76696E
##667473
7374617469
D8A7D984D8B0D98AD986
##6C757373
D0BDD0B0D18F
4575726F70C3A469736368656E
74696F6E73
31393737
D0BDD0B0D181D0B5D0BBD0B5D0BDD0B8D18F
D0B7D0B0D189
4C6F756973
42726974697368
##696E736368616674
3038
4D697474656C
##C3A26365
72696D
4BC3B66E6967
D0BED182D0BA
##D0BED0B6D0B4
636F6D756E69
##7469C3B3
66617574
D8B9D984
616C67
##666572656E636961
656E74656E
##636A65
##D0B8D182D183
7065726368C3A9
D8AFD988D984D8A7D8B1
##70617274616D656E746F
##D8ADD8B5
D182D0B8D0B2
D8A8D8A5
D8A8D8B4D983D984
4543
4D6164726964
D98AD988D986
726961
446F6D
##6F706F
D180D0B6
D0BED0B4D0B0
657578
74726176617578
6465726E696572
D0B4D0B5D0B9D181D182D0B2D0B8D18F
##E0B8ADE0B89A
##D8AAD8AC
61637175
646573637269
756E74696C
6C616E7A
##D0BED0B6D0B5D0BDD0B8D0B5
776569
42696C6C
48696768
7365756C656D656E74
##69646165
6F776E
D984D8AF
##756B616E
7A6F6E65
6D6F6E646F
73756273
736175
70657266
D8A8D8B5
7175696E6469
56616E
E0B980E0B8AD
6C617175656C6C65
537061
6175746F7269
D183D0B6D0B5
D0B4D0B2D183D185
D188D0B5
69676E
70726F66657373
6D696C6C696F6E73
6A7565
D183D181D182D0B0D0BDD0BED0B2
43687269737469
64C3A96AC3A0
C3B56573
726573756C7461646F73
6170656E6173
D09FD0B5D180
D8B9D984D98AD987D8A7
##E0B988E0B8ADE0B887
##D988D8B3D8B7
D8AFD988D986
##697373656D656E74
D187D0B0D181
6361727269
##D8B1D8A7D8A1
6F736F
486162
70726F6A657473
D8AFD98AD8B3
##6F6C747265
70726F6E
##72616D
D187D0B0D181D182D0BDD0BED181D182D0B8
D180D0B5D181
C3AA6E636961
##6172646F
D988D8A7D984D8B9
6162616E646F6E
D0BDD181D0BED0B2
6F66666572
##63686F64
##6B696368
##C3B6676C696368
696E666F726D6174696F6E73
4DC3A97869636F
64696D656E73
##6F6E6173
##6F6E64657265
##6C6C
6AC3A1
696E61
61696E6461
##6570
##6F76
##6F757267
6F72647265
##616361
53746F
D0B5D185
65757273
E0B881E0B987
496E66
3737
##7065727469
D0BFD180D0B8D0BDD18F
656C696D696E
##7374616E7465
676568C3B672
696E7465726E6F
7061737365
646576656E
##D0BDD183
646566696E69
617474656E
4D6169
6D6FC5BC65
47656D65696E6465
727573
4265726E
4175737472616C6961
6E617374
52616D
656E747265707269736573
4E69
66616D696C79
D182D180D0B8
657370656369616C6D656E7465
D0BCD0BDD0BED0B3
##7777
##617065
##E0B983E0B8ABE0B989
E0B984E0B8A1E0B988
636965
D0BFD180D0B8D0BDD186D0B8D0BF
526567696F6E
697261
##D984D8A7D8AB
6469726563746F72
736F7576656E74
646573656E766F6C
D0B4D0B5D182D0B5D0B9
D0B2D18BD0BF
##69656D707265
##7469646F
##D0B5D0B2D0B5D180
D0BDD18F
##6F6772617068
##686972
##7A6E61
64656E73
3936
##D181D182D180D0B0D0BD
##E0B881E0B8B2E0B8A3
D8A3D8ADD8AF
6F706F7274
##69737069656C
##6F7573
52656C
D0BAD0BC
D0BAD0BED0BDD184
70726F76656E
4C6567
6B6F72
6B6F6D756E
##6B7261
70726F647563746F73
##6C6F72
##66696B
D8A8D8B1D986D8A7D985D8AC
717565737469
5072C3A9736964656E74
4869
D181D182D0B0D0BB
31393638
6D69736D61
##D180D0B0D0B1D0BED182
7261706964
##D0BCD183
##6374757265
6D6F6D656E74
7072656E647265
6963
##D0B5D0B4D0B5D0BDD0B8D18F
536F6369616C
##6D6168
D8AAD8B5
767265
##696E616C
7072C3A9736964656E74
6D65736573
696C69
##D981D8AA
617061
657373656E7469
D18DD182D0BED182
6163636570
4769
6578696765
##6E61686D656E
31393637
43656E74726F
##697669
4943
64C3A96C
4153
696E7465726E6163696F6E616C6573
696872656E
##656D61
D0BED185
D8A7D984D8A8D98A
##D8A7D98AD8A7
##6A616E
6D61796F72C3AD61
##6BC485
4B7572
##6E6564
##C3AD666963
31393434
616C63756E69
426567
##657374696F6E
##626C696361
636F6E737472756374696F6E
D186D0B5D0BD
506564
##776567
3637
68C3A9
D984D987D8A7
##737A65
E0B888E0B8B2E0B881
##746F7269
73657074656D627265
##76656E74
63616C69646164
D183D188
##D0BBD0B0D0B2
##D181D0BAD0B8D0B5
313738
416273
##D8AED8B0
7A616D
617474656E64
D09FD0BED181
D0BFD0BED181D0BED0B1
696E69636961
6F70656E
776F6E
476F74
6F666572
436572
C3A761
72C3A8676C65
6E756573
##D8A7D8B7D982
##6D65646961
##D0BDD0BED0BCD183
##6573736572
6861626572
D8AFD98AD8B3D985D8A8D8B1
636F6E6365726E65
74656EC3AD61
D98AD8AAD8B9D984D982
##E0B8ABE0B899
##C3AD64
6F7574726F73
##D8A7D8A6D985
446174656E
417A
6D65696C6C65
D8AAD8B7
56656E65
##C5826F73
##66756C
4465736465
D8A3D8B4
##696E657373
64696573656E
61727465
67616D65
636F6D6D756E6963
456E657267
D985D8A8
##D8A7D8A8D98AD8B1
596F
68656974
##69736F
7669656C65
##D0BED0BBD0B8
6361757365
63617061636974C3A9
466C6F72
D98AD98F
736F6369616C6573
6F75766572
72C3A97365
67656D65
6E75636C65
D0BDD0B0D0B7D0B2
##D18BD182
##6B696D
617274697374
6175C39F6572
##75737A
D8A7D984D985D8B9D984D988D985D8A7D8AA
##6963686572
##69656E7374
67617264
6465737461
D0BCD0B0D182D0B5D180D0B8
636F6E63656E74
6C696368656E
70726F676574
526F64
6F63746F
C3A964
D0B3D0BED181D183D0B4D0B0D180D181D182D0B2D0B5D0BD
##74696C6C
6765736368
##D0BED0BBD18F
63616D62696F
74656D706572
706572736F6E6E65
##D0BCD18B
7072C3A873
##C593
##6E616D
73746167
##6374696F6E73
D187D0B8D181D0BBD0B5
##6AC4856365
##D8B1D8AA
##616E74616765
6DC3BA73696361
##616E677361
##666163
5265616C
7A6172
696E74C3A972C3AA
##69746174696F6E
6170726573
70726F636573
43616C69666F72
##666F726D616E
636F75
##D985D8A7D98AD8A9
E0B897E0B8B1E0B989E0B887
496E646F6E65736961
43656E7472616C
##6965727A
6E6F7576656C6C6573
436F6D756E69646164
6A75696C6C6574
70656E67
6F7267616E697A6163696F6E6573
##78696D61
E282AC
72C3A966
736F707261
D8B9D985
D187D0B0D181D182D0B8
D0BED181D0BDD0BED0B2D0B5
73657373696F6E
D18FD0B7D18B
##D09D
D181D182D0B5D0B9
6772C3B6C39F
52C3A97075626C69717565
6D656E64
##69726D
##756D69
##626F6E
646966666572
##C3A4746967
636F6C6C61626F72
##6672696361
64656D616E64
##7573746F
31393430
6A6170
4B6170
##646572756E67
6B6F6C
##72696361
##C58265
##D0B5D0B3
D0B5D0B3D0B8
657274
C3A9706F6361
##4150
D982D8B1D8A7D8B1
686F6C
6669726D
##656C6C736368616674
63696E71
7475766F
##D988D981D98A
62616A
C3A97472
D183D0BAD180
##D8B8D981
##D982D8A7D8AA
72696365
4D616E6E
6E756D65726F73
766973697465
456E74
D09ED182
67726F75706573
##6469C3B3
##6966696361
D0B8D0BDD184D0BED180D0BCD0B0D186D0B8D0B8
##D8B5D8A9
##6573656E
73796D
##727570
4E75657661
D180D0B0D182
E284
##616C6C6572
64C3B36C
616E6765
646F6E6E65
6E756D65726F
646F7274
6D65696E65
61756A6F757264
D0BED0B4D0B8D0BD
C3A9746174
636F6D756E696361
636F6E646963696F6E6573
72696E
70726F706F7263696F6E
##72616369C3B36E
776F6A
##63696465
626C6573
##6D756E
6B6562
6C6174616368
506163
70726F636573736F
##6E64
##6C65736961
##D8ACD8AAD985D8A7D8B9
##746572696F726573
4475726368
6578747265
616D65726963
64656E656E
##D0BCD0B8D0BDD0B8
73616D61
D0BBD0B0D0B3D0B0
616C7465726E61
D8A7D984D8B9D8A7D984D985
7365727669
63616C6C6564
##D8B7D984D8A8
D181D0B5D0BBD18C
7265636F6D656E64
##76657279
7175616E74
31393731
7477
##C3A4C39F
##6F727473
##D8AFD985D8A7D8AA
##69C3A7C3A36F
##7761726473
##D0BED0B2D0B0D182D18C
##D9A1
##697A61
6C69746572
##4F52
##756D656E74
D0B2D0BED0B7D0BCD0BED0B6D0BDD0BE
4C6962
707565626C6F
D0BCD0BED0B6D0BDD0BE
6772C3A26365
##696E646574
61737375726572
##D8B3D8A7D8A1
71756564
##D0B5D0BAD182D0B0
##746973636865
4672616E636973636F
E0B981E0B895E0B988
##D181D0BAD0B8D0BC
##696572656E
D983D8A7D986D988D986
E0B88BE0B8B6E0B988E0B887
6E6567617261
616E6461
5175C3A9
417267656E74696E61
##4243
##D0B5D0BDD0BE
6974C3A0
666F6E6461
D188D0BAD0BED0BB
##69666963616369C3B36E
6469706C
45696E73
D182D18CD181D18F
D8A7D984D8B4D8B1
3938
63756C74757261
D0BAD0BED182D0BED180D0BED0B9
746178
D186D0B8D18E
73706563
76656E6E65
##6EC3A965
E0B8A1E0B8B2
666C6F
74C3AD74756C6F
D8B9D985D984D98AD8A9
636F6E74656D
6D61746368
##69656E6461
D8A7D984D8AED8A7D8B5D8A9
6C6C
D181D0B5D0BB
6469736372696D696E
##617A696F6E69
636F6F70C3A9726174696F6E
##D8A7D986D8A8
##65646572616C
7574696C697A61
74656D70
##D0BDD0B8D0B5
6D61696E74656E
61686F7261
72696573
4A616B
6A616E76696572
74657273
6571756970
31393330
616C67756E6173
4D61726368
##64756E67
##C5826FC5BC
616C6C656E
##6B69656D
636F6E73756C
4954
736F6E6465726E
##69656E6965
536567C3BA6E
##72696173
77656974657265
##6C6167656E
736572766963696F
31393639
##C3A86465
62617275
696E637265
##D188D0B8D0B9
686F726173
526170
##6C6164
##6765736368
6F63746F627265
##D0BED0B2D0B0D0BB
70726F63
##7A6563
6F626A657469766F
74726F757665
##D984D98AD984
6665627265726F
##697A696F6E69
73616C7564
##D8B6D8A7D981D8A9
636F6E73756D
70726F6772616D6D61
##69726F73
##D0BED0B3D0BBD0B0D181
746966
3932
72656C6561736564
766163
D187D180D0B5
7472616475
64697665727369
6E6163696F6E616C6573
73757065726669636965
706F7365
77616C
##D8B9D8A7D8AFD8A9
D0B4D0B2D0B0
##C3B36D6F
62656175636F7570
##3530
##62656E73
##616D70756E67
61707075
646573656D
70726F7465636369C3B36E
D0BED0BFD0B0
61756D656E746F
D984D98A
617175656C
5065746572
D8B6D8AF
##E0B88B
7665636573
##E0B8B1E0B8A2
44657A
506F72747567616C
5365637265746172696F
##D0B3D0BED0B2
##7A65676F
436F6E7374697475
616C747265
616C74726F
D09CD0B5D0B6D0B4
706C61796564
D181D0BBD0B5D0B4D183D0B5D182
576173736572
D8AED8B7
##69657361
54616B
6E6170
C3A97475646573
67727570706F
##706F6973
##D8A7D8A6D8A9
4D617274696E
636F72726573706F6E64
42617263656C
756E69717565
6C6F7273717565
##E0B980E0B89BE0B987E0B899
##696E676572
D8A7D984D8A3D985D8B1D98AD983
##4954
62617264
6F7267616E69736174696F6E
7565
7461697265
696D706572
D8B3D8AA
##6974696573
##D8BAD985
D988D8B6D8B9
D8A7D8AAD981
D8A7D984D8AED8A7D8B5
5075
7061727469646F
##6F7269616C
##616E6975
##7469736368
D0BAD183D0BBD18CD182
##D0BED0BDD0B4
D988D8A7D984D8A5
6275696C64
##D8B8D8A9
D8B8
42756E646573
737072
D098D0B7
6375657374696F6E
636F6E6A756E746F
65696E696765
746F776E
##696C79
616B74
6C69737465
636F6E6865
##796169
44696F
7369656D707265
##6F77616E65
3937
656E636172
777777
6D616D
70726F6475636369C3B36E
7563
##C3AD63756C6F73
636964616465
666669
##6F6D6574
657461
70726F64756B
D8AAD983D988D986
D8A7D984D981D982D8B1D8A9
5669
##6C6174696F6E
##D98AD986D98AD8A9
4573746F
7072696E636970616C65
##6F737365
##6F6D70
##D0B0D180D0B0D0BAD182
##D8B1D8AE
616C63616E7A
636F6D7075
##6669636174696F6E
73656E64
54726173
61746F
74617578
6D6F727465
706961
##7A61746F
D186D0B8D0B5D0B9
D0B3D180D183D0BFD0BFD0B0
4D69636861656C
756E6974C3A0
72C3A170
##69746967
717561
756666
D9A1D9A9D9A9D9
56657262
70726F706F737461
##67656E6365
##6F73706974616C
##617262656974
656E7375
##D8BAD8A9
D185D0BED0B4D0B5
7369677569656E746573
6D61726361
7465726D65
##E0B989E0B8B2E0B89E
##6F757465
676F7665726E6F
706F737465
D8B9D984D98AD987
##756573746F
D0BED0BBD18C
5068696C6970
556E65
686E
616E6E6F6E
7769656C
757261
##7469646164
7072C3AA
76656E74
706F73736F6E6F
D181D182D0B0D0B2D0B8
74656E75
D0BED0BFD0B5D180D0B0
D8A7D984D8B9D8B1
D0B4D0BED0BBD0B6D0BDD0BE
##74616474
##756C747572
726F636B
457370
##706574746F
##6D7573
6372C3A96174696F6E
5245
##D191D0BC
##E0B8A2E0B98C
6372C3AD
D987D986D8A7D983
##696379
D0BDD0B8D0BCD0B0
626961
426174
D182D180D183D0B4
636F6D7061
727565
636F6D706167
616464
##7066
D8A7D984D8A3D8B7D8B1D8A7D981
4A756E
6170617265
636F6D6D656E74
646F6C6C617273
4173736F6369
##6C656774
C3A96C6576
74616C65
D181D0B5D0BAD180D0B5D182D0B0D180
636F7374
64C3B36C61726573
68697A6F
70726F6A65
7A6173
696E636F72706F72
656D706C6F79
##696C6C6F
576965
636172676F
##E0B981E0B8A5
656C6C6F
##657277
##D0BBD0B5D0BAD182
626175
7365706172
4D7572
4E6963
##D0B0D0BBD0B8D181D18C
##62696C65
D8A7D984D8B3D983D8A7D986
##70726573656E7461
6C6176
D8B7D8B1D98AD982
D0B7D0B0D189D0B8D182
##C3A964C3A972
##61636F
6C6F63616C6573
D8AAD8ADD8AF
61646D696E697374726174696F6E
##6772756E64
7072696E636970616C6D656E7465
427564
3838
31393230
4F6B746F626572
D8ACD8B2
7072696D6569726F
6D616E61
##7A656963686E6574
766572736F
646167
69736174696F6E
6C6976656C
5072C3A4736964656E74
##6B7265
##D8A7D8B9D8A8
677261646F
##6F72616E67
##E0B8A9
D8A7D984D986D988
##656E6369
7072696D
617672696C
5265696E6F
##7761C5BC
436F6E73656C686F
##69766564
63697479
6C7565676F
##D0B0D182D18CD181D18F
##C3AE74
C3A97265
726574
##6E6F76
69657274
D0B4D0B5D0BBD0B0
##6164726F
656666696361
##6F6C6C65
6162626961
466573746976616C
##637261
636F6F706572616369C3B36E
696E636C75736F
##D8A7D982D8A7D8AA
436F6C6F6D
D183D180D0BED0B2D0BDD0B5
D0B4D0B0D0B2
D0B2D0BBD0B0
##D8A3D8B3
##616E6A
##616E67656E
6469766973
3732
D0B2D18BD181D182D183D0BF
726567696F6E616C
686964
74656A
50726F626C65
7A696F6E
6D7563686F
617373696D
6369726361
D0B1D183D0B4D183D182
61676974
##69747465
66617265
6E696368
##E0B8A3E0B8B7E0B8AD
686973746F697265
7072C3A976
##C3A972C3A9
##746967656E
70616978
##C58D
##6976616C
##676F64
##D0BED180D0BED0B2
646573747275
##67756173
##666F726D6573
##69766573
##776F686C
6D696E6973747265
416E74
48656C
61636365736F
##C3AD737469636173
##D0B0D181D18C
##C3BA626C6963
##D183D0BA
64C3A970617274656D656E74
##7974
D8A8D988
50616B
6175736765
4575726F706561
##D180D0BED0BD
6361626F
656E746572
647265
696572656E
6469726974
636F6E737461
56696C6C61
##6569746F
##4148
6F62726173
##6965646164
##D98AD8A7D986D8A7D8AA
##74696765
D8A7D984D985D8A8
4269
417072C3A873
6573656D
656967656E
7374617474
D0B1D0BED180D18C
636F6E746163
##D0B0D0B3
6973736F
6461626569
C3A475
6971756573
##72657261
31393339
7265737465
646F6973
656E6465
72C3A9756E696F6E
64657669656E74
##C3A9726369746F
7A6573
73657065727469
6365727461696E6573
##6973746573
72656E636F6E
656B
##726164
54686F6D6173
##C3AD63756C61
6B6F6E6E7465
D0BCD0B5D180D18B
72656C6174697661
D09CD0BE
D0B8D0BDD182D0B5D180D0B5D181
##706F77696564
766F6C6C
##7374C3BC747A
4950
65737361
D0BFD180D0BED0B3D180D0B0D0BCD0BCD18B
D181D0B5D180
636F6D7061C3B1
6964616465
7175656C6C61
697665
##6E75
436F6C6C656765
##6C6965C39F6C696368
70696C6F
##D98AD8A7D8AFD8A9
##C3A46E67
##D183D18ED189D0B8D185
73656E7469646F
D185D0B0D180D0B0D0BAD182
D180D18FD0B4
6C6F6E
##D8ACD8B1D8A7D8A1D8A7D8AA
D181D0B5D0BDD182
726576656E
5261686D656E
74726176657273
54616C
D985D8AFD98AD986D8A9
##66616872656E
657874656E73
##756265
C2AA
##74656E74
D0BBD18CD0BDD18BD185
##6F7765676F
6D6F6469
##617564
##616B61
6769C3A0
##69656D65
676C6F62616C
6D6172636F
##6A6573
##3139
696E7465677261
##7461676F6E
##76656973
##616C69616E
D0BED182D181
6B6564
636F6C6F6E
726574726F
##676C697365
##D0BED0BDD187
417373656D626CC3A965
3639
D0BFD0BED181D182D0B0
##D186D0B5D0B2
E0B89EE0B8A3E0B8B0E0B8ADE0B887E0B884E0B98C
626F6F6B
##656C66
436861
7363686F6E
6D6174657269616C
##D988D984D989
D18CD182
67C3A96E65726F
72C3A9706F6E64
6477
6B6174
6B6170
7475747465
##D8B1D8AF
##7565696C
##7469766974C3A0
##E0B8AE
466F6C
3736
7A7769C4857A
D181D182D0B0D182
##C3A46E646967
##6261686E
D0B5D0B1D0BDD0BE
##70756E796169
6F75747265
7472616E73706F727465
66617365
##65636B
##C3A761697365
##756D706C69
766172696173
E0B980E0B894
E0B8ABE0B899
61626C65
6F7265
C3AF
D98AD8AD
63636F
##6C6F676F
64616C6C65
##C3A87665
##6F6E61746F
D0B4D0BED181D182D183D0BF
6D656D627269
D0BBD0BB
D8A7D984D985D987
##D0B5D181D18C
##74696373
42616E6B
D8A5D8B7D8A7D8B1
666173
3733
6D617361
##6369656E646F
##617070
##C4997A79
746175
D0B5D0BDD0B8D0B5
6D6564696461
##7A6F6E65
##D0BED0BBD0BE
616371756973
616E79
42756368
706572696F64
D981D98AD987
##7AC48564
77796B
##61646F7261
D0B2D0B5D0BBD0B8
5072656973
##D8B4D8A7D8A1
##C3A76173
D982D8A7D985
##756A
D181D0B2D0BED18E
5468657265
##756E746F73
7468657365
6E6169726573
3933
##D988D98AD8B1
##61726B
6368616D70696F6E
##75626C65
50726F746F
##D185D0BED0B4D0B8D182
70726F64
##C3BC72676572
D183D0BBD0B8
5343
D0BFD180D0B0D0B2D0B8D182D0B5D0BBD18CD181D182D0B2D0BE
65737472756374
##D182D0BED0B2
D180D0B0D181D0BFD0BED0BB
D189D0B8
4A756E69
D984D8ACD986D8A9
6E756F766F
647572616E74
##696575
506F7572
##73746F
D0B5D191
49736C616E64
74726F7661
436F6E7369676C696F
D0B8D180D0BED0B2D0B0D0BD
477565727261
31393431
##696E7461
##D0BDD0B8D185
D985D8B1D983D8B2
736C
67656E7465
686F6E6F72
D187D0B5D181D0BAD0BED0B9
D181D0BED0B2D0B5D182
6D6F6E74
##D981D8B9
7269656E
6D656D70756E796169
7365766572616C
43656E747265
6F7267616E69736174696F6E73
D8ADD8B2
596F75
6176657661
6572616E6F
77696C
656C6576
61726D6173
416C656D616E
636164
##78696D6F
##6F7369
486179
656E7375697465
D181D0B5D0BCD18C
##D0A1D0A0
64C3A9636F
6D616E6F
##D985D8B3
4A75737469
D0B4D0B5D180D0B5D0B2
76696365
##D8A4D988D984
6A656E
##6B6579
##726F77
696E6F6C747265
##6F6E646F
D0B8D182D0B5D0BBD18C
D98AD8B3D8AA
6E7A65
##75737461
##D186D0B5D0BD
363030
##756D656E
D0BFD0B5D180D0B5
54656C65
##736B696368
##6172C3AD61
##6F6C6F67C3AD61
##D988D982D8B9
696469
696E676C
506965727265
##616E676B
##776173
736167
7374656E
61676C69
##C3AB
62656964656E
D181D0BAD0B0
73616C61
D181D0B2D0BED0B8D185
##E0B8A3E0B8B1E0B89A
656E726567
736F75726365
666967757261
##7175696C
##69677572
7175616E7469
31393634
##7475616C6D656E7465
4361726C6F73
D183D187D0B0D181D182D0B8D0B5
##6E696BC3B377
6C6F63616C697A
D8A7D984D8A3D8AED8B1D989
426C61636B
##D988D8AD
617567
7361766F6972
##69656C74
466F7274
D0BDD0B0D0BC
647269
D0BAD180D0B0
D09FD180D0BE
D0BCD183D0B6
686F73
##E0B984E0B89B
D8A7D984D985D985D984D983D8A9
4F4E55
##6F636F
D0B7D0B5D0BC
D0B0D0BBD0B8
##616D6D
D18ED182D181D18F
D981D982D8AF
D8A7D984D8AAD8B4
D8A7D984D985D8B1D8A3D8A9
3734
D0BFD0BED0BBD0BED0B6D0B5D0BDD0B8D18F
697461
646572656E
6D756E6469616C
D181D0BED0BED0B1
##C3A96375
737570C3A9726965
##77696164
72656C6174696F6E73
##D0BAD0BED0B2D0BED0B4
6465636964
776964
636FC3BB74
##D8A7D984D98AD8A7
D181D182D0BED180D0BED0BDD18B
6575726F70656F
##616E6E74
73696E6365
D8A7D8B3D8AAD8AED8AFD8A7D985
31393635
706179
##7761C487
6E6F727468
7365677569746F
70C3A1727261
D8A5D8B0D8A7
70726F64756974
766564
##616D74
4A6F68
62726173
##E0B8B6E0B989E0B899
70726F746F
D8A3D985D8A7
67657374
##7A79C487
526F62
##D984D8AA
4375616E646F
##6D6F6E696F
6D657A
7A6D
47726F757065
E0B980E0B8A5
666572726F
726573756C7461646F
D0BAD180D0BED0BCD0B5
7072696E636970696F
686162C3AD616E
6F7576
6E6F7469
7075626C69717565
##6A616C
##697374616E
64656E6F6D696E
4152
##746F726E6F
##D988D8ACD8AF
D181D181D0B8
5350
##D8A7D8A6D982
70616C6162
D0B4D0BED0B3
D985D986D8B0
##D8BAD8B1
##D986D8AAD8A7D8AC
D8A7D984D8B3D98AD8AF
476C6F
746F74
6C696B65
E0B881E0B8A5
313737
##74656C6C69
D0BED182D0B4D0B5D0BB
4469737472
6D617269
63686170
D0B8D181D181D0BBD0B5D0B4
E0B8ADE0B8A2E0B8B9E0B988
D0B2D181D0B5D0BC
656E7465
##D0BAD182D0B0
##696E6E
D180D0B0D0B7D180D0B0D0B1D0BED182
7669736974
D18BD0B5
D0B4D0B8D181D0BA
D8AAD8B3D8AA
73747564696F
686F757365
##756C74757265
6562656E
62696C65
D181D0BFD0B5
726F6D616E
3032
D8A7D984D8AAD986D985D98AD8A9
D988D8A7D984D8AAD98A
##706F6E65
##E0B8B2E0B88A
72656C6967696F73
31393636
##D0BDD0B8D0B8
676E656D656E74
61766169656E74
##D8B8D98AD985
43726973746F
66616D6967
70726F7072
3836
54686579
##74656175
67696F726E6F
##616C7468
6E656172
D0BAD0BED0BDD182D180
506574
70657274
7265747572
##D0B8D187D0B5D181D0BAD0B8
6261736564
6F627365727661
6D656D627265
##74C3A973
##D191D180
D09CD0B8
D18FD0BDD0B2
7365726F6E74
D8A7D984D985D8A7D8A6D8A9
4173736F63696174696F6E
D0BED0BAD182
D8AAD982D8AFD98AD985
426C6F
##706972
707265636564
64657672616974
5573
##69747564
D0BED180D0B3D0B0D0BDD0B8D0B7D0B0D186D0B8D0B8
6C7564
D0BCD0BED180
##6963696C65
##626564
D985D986D8B7D982D8A9
5374616E
##E0B989E0B8AD
6561726C79
##7070
53636877
4F666963
##69626C696F
72616973
57617368
77797374
746F726E
##D181D0BAD0BED0B5
##D0B8D182D0B5D0BBD0B5D0B9
31393433
##77696174
C3A971756970
736F756C
736564
##D987D8AFD981
5A696D
##D181D182D0BED187
##6172616D
6465636972
42726974
61766F6E73
647A
##6C6F7373656E
##6C69636B
6F6C747265
##74656C79
6CC3A0
##66616872
D8A8D98A
66C3A1
D98AD988D984
4DC3A472
6575726F70C3A4
##6B69656A
6E75657374726F
##D0B5D180D182
70726177
7072697661
4861757074
4B696E646572
64696F
##D982D8B7
52696F
D0BAD0B0D0B6D0B4
6566666F727473
68656164
70756C
4665646572
686F6D65
D18BD188
67656D65696E73
626F75
6566666963616365
##E0B8B7E0B8ADE0B887
D0BBD0BED0B6D0B5D0BD
##D8AED8B7
3738
6A65756E6573
66656C
6368696C64
##62616368
726973756C7461
7061727465636970
66756E6B
686F6D6D6573
7265636F6E6F6369
##65726F70
456E676C697368
5053
7465726D696E65
D187D0B5D180D0B5D0B7
616DC3A9
##D183D180D18B
636F6E636C
##76696D656E746F
6166666169726573
5065726F
666F6E6473
7472616974656D656E74
6A7565676F
C2A1
6D6FC5BC6E61
646F776E
68656E
5066
##626572746F
##C48564
6D7565727465
##696E696E67
657366
636F6E666C6963
##D181D182D180D0B0
##D0BAD0BED0B9
636F64
##D8B4D98A
6F6C69
##7261646F
##7175656E74
D187D0B0D181D182D18C
D0BDD0B8D0B8
D0BBD18FD182D18C
436F6E76656E6369C3B36E
6C6572
5374617465
##D8B1D98AD8B7
6F70C3A97261
D985D8ACD985D988D8B9D8A9
447265
##E0B980E0B8A5
696E6E6572
416C73
73706F72
D0BBD18ED0B4
65737461646F756E
D8B9D8A8D8AF
7363686E
73756363
##706F7361
##D982D8B5
617365
7365636F6E6461
636F6D6D616E64
##D8A7D8B1D983
6578636C7573
##D8B9D98AD986
746572726573
6D6564696F73
47656D65696E736368616674
7375706572696F72
646562656E
##74616765
666F6F7462616C6C
69736368656E
63656E
D988D8A7
5465616D
6173697374656E636961
C3A978
7265746F7572
496E6465
77C3BC72
##D186D183
D0BDD181
4F6E65
D182D0B0D0BAD0B8D185
73656D61
437265
##C3A464
C3A963726974
6DC3B6676C696368
##E0B89C
D0B7D0BED180
3731
727469
D182D0B5D187
##C5826173
6C6564
5365C3B1
636F6E73C3A97175
4B6572
636C6173
5665
4144
6170707569
61636570
636F6D706F6E
4D7573696B
##63697461
##D8A7D985D8B9D8A9
656E7461
C2AB
##6BC499
6174656E6369C3B36E
4B726965
6375616C6573
4F6C69
D0BDD0B5D0B9
3837
##D0BDD0B8D0BAD0B8
##E0B980E0B8AB
736368656E
44C3A9
4C6562656E73
6672616EC3A761697365
736F6C6C7465
##7265746F
D0BDD0B4
65666665637475
426973
6578697374656E
##686F73
##C3A97269717565
##6162656E
6175746F6E
31393633
706563
##C3AD7374696361
69646561
D180D0B0D0B9D0BED0BDD0B0
73656A
D0BBD0B5D0BDD0B8D18E
6A756469
497261
616D69
##6F6C6172
446961
70726F7072696F
E0B980E0B8AA
##6976616D656E7465
##75646F
636B
31393438
646966666963
##74C49970
##6967687473
##E0B980E0B8AD
##6F6E6465
70726F626CC3A86D6573
4E6574
##D8ACD987
##69756D
546172
D181D0BBD0B5D0B4D183D18ED189
D0B4D0BED0B3D0BED0B2D0BED180
E0B897E0B8B3
##77656E64756E67
D98AD986D8A8D8BAD98A
D183D0BB
7273
61747469766974C3A0
6E65676C69
636564
##D0BED0B3D0BBD0B0D181D0BDD0BE
##D182D0BED0BCD183
##776F686E
D0A0D0BED181D181D0B8D0B8
70C3A167
D0B6D0B8
D0BAD0BED0BDD181D183D0BB
6572756E67
D8A8D985D988
##696E676761
48696C
61706C696361
416D6572696361
##D0B5D0BDD0BDD18BD185
3931
5265696368
4D6963
##696E6B
64697363757373
D189D0B5D0BC
4F7274
##E0B8A0
74726162616C686F
636F6D6D756E617574C3A9
3034
##D8A7D985D984D8A9
7468C3A9
D8B4D8A8
72C3AD6F
##657374696D6D
##E0B8A3E0B8B5E0B8A2
4A756E65
506572736F6E656E
D189D0B0
E0B980E0B8A1E0B8B7E0B988E0B8AD
6F63636173696F6E
##C3A16E646F7365
##776F6F64
657870C3A97269
D0BFD180D0BED0B8D0B7D0B2D0BED0B4
736F757468
31393632
4D617373
617272C3AA
6E6F757665617578
646F6E6EC3A9
##65726173
706573736F6173
57617368696E67746F6E
E0B899E0B8B1E0B989E0B899
##7374616E
61636F72646F
##6569746572
4D697373
636F6D706574
77657374
6C69717565
D984D984D8B3
D8A7D984D8AFD8B1
6879
##C3A17469636F
##676163696F6E6573
##757369C3B36E
667269
63756572
41736961
##6169736F6E
##D986D98AD986
4A6170616E
##D8ABD986D8A7D8A1
73697475C3A965
D8A7D984D8A3D986
##D8AAD8A8D8A7D8B1
4B6174
##D0BDD183D182
##C5826177
656E747769636B
50726F6475
43616C69666F726E6961
48616C6C
64617A75
##7A656368
##7574746F
##D0BDD0BED181D182D18CD18E
D181D180D0B5D0B4D181D182D0B2
616DC3A96C696F72
##E0B980E0B897
D0B8D0B7D0B2D0B5D181D182
7070
656E7669
73706F73
##D981D8A7
7374796C65
766F69
##756E746572
73636861
##74727A65
##D0B8D187D0B5D181D0BAD0BED0B3D0BE
6B616C
##E0B989E0B8A7E0B8A2
436573
##74776F72
76657261
656E7472657072697365
67C582C3B377
666F6C6C6F77696E67
76656E6972
7061727469636F6C617265
D0BDD0B5D0B3D0BE
##76616974
63726573
7573746564
72656C61746976
D0BED187D0B5
##746567
##D8A7D8A6D8B1
D8B9D8AFD985
50726F6772616D6D65
4576
##C3AD6669636F
696E64C3A9
##72697474656E
636F6D626174
656C61626F72
61737365
736972
6D6175
6B697461
456C69
6C6961
##63696D656E746F
##756C75
4550
##736B696D
##686174
##7A6573
##6E61686D65
76656E74696F6E
6C6163
486F757365
63656E73
D8A7D984D985D983
##66616368
736174696F6E
D180D0B5D188D0B5D0BDD0B8D18F
D180D183D0BAD0BED0B2D0BED0B4
##616A6172
776F7264656E
31393432
##6369656E7465
##69656C65
7072C3A97675
68616265
4B616C
616D6F72
766F6C65
646165726168
5475
526F79616C
D8A7EFBBB7D985D985
E0B89BE0B8B5
666F726365
53657276696365
746965727261
7A6E616A6475
C3BC636B
766F63C3AA
62617373
##7369C499
73697374656D6173
3934
74C3A9726D696E
##7574616E
##74756465
66726F6E74
4D617269
3834
7369676E69666963
D09FD0B0
D983D8B1D8A9
##4941
D0BBD0B5D0BDD0B8D0B8
696E666572
6E7A6961
7374756469
D0BFD180D0B8D0BCD0B5D0BD
6573747564696F
##7A657567
4772616E6465
D8A7D984D8B9D8B1D8A8D98AD8A9
##796172
D0B0D186D0B8
74656E7461
D0B4D0B5D0BAD0B0D0B1D180D18F
D982D8A7D986D988D986
656475
##696F6E73686970
736F62
70616B
##74C3A965
70696564
4C6579
506170
66696E69
D182D180D0B0D0BD
627269
5354
D8AAD983
##D8B1D98AD982D98AD8A7
6575726F
6675657261
6774
##D8B9D8B1D8A7D8B6
666F6E74
D0B5D181D182
3033
61736573
696E766573746967616369C3B36E
##696C6C6173
636F6D756E69646164
C3BA6E69636F
##74697A
##616C697A616369C3B36E
7A6F6E6173
D986D8ADD988
##746172696F
##C3BC6E66
D988D8B0D984D983
556E696F6E65
636F6C61626F72
3035
D8A7D984D8A3D985D98AD986
##D183D189
646576616E74
74616E64
D189D0B5
##666965
##D0B0D0BAD182D0B8
6F7070
657366756572
D8A7D984D8AED8A7D985
D8A3D8B9D985D8A7D984
626164
D0BFD0BED18D
646972656374696F6E
##E0B899E0B8B1E0B989E0B899
636F6E736967
6665636861
313230
70C3BA626C6963
4F7574
6C6576
##62657273
4E6F727465
4E6170
D183D187D0B0D181D182D0BDD0B8D0BA
6E6575
74756E
D8B1D8B3
47696F
D0BDD0BED181
##D0B0D0B1
5769
D183D0BDD0B8
D988D8BAD98AD8B1
##E0B989E0B8B2E0B887
##61796168
70657269
687562
##D0BDD0B8D0B9
62656C696175
31393631
3839
61666563
73657474
##7469747574
##676F6E6F
726567756C6172
6576656E
D8A7D984D981D8AAD8B1D8A9
##D8ADD98AD8A9
##E0B980E0B8A1
D986D8B8D8A7D985
556E69C3A36F
656A6572
63616D7061
##D8A6D8A7D8AA
686F6D62726573
D0BDD0B0D0BF
6E6F76656C
536162
656D62
##72696666
70656CC3AD63756C61
D0B0D0BFD180
617363
##746F7574
##D0B0D0BBD0BED181D18C
D090D184
6F72646572
D8AAD8B9D8B2D98AD8B2
706F737461
65647563616369C3B36E
D988D8ACD988D8AF
##676564
##65627574
706F6C696365
##D0B8D0BCD0B5D180
5369676E
416E7469
636F6E7175
##D0BAD0BED0BC
646563697369C3B36E
##77696574
##636F7572
##D8AAD985D8AF
##6E74656E
##6C656D
##6C73
6578616D696E
31393538
D186D0B5D0BBD18C
##6564657574
D8A7D984D8AAD8B9D8A7D988D986
6D656E74696F6E
626567616E
4A6F73657068
6F626A656374696673
D0BBD0B8D0B1D0BE
4E6174
D180D183D0BA
7264
D0BDD0B0D0BFD180D0B0D0B2D0BBD0B5D0BD
6E756573747261
4168
616FC3BB74
##D988D8B1D8A7D8AA
76656E7461
##697373656E736368616674
62696C64
6375657374696F6E6573
7A61686C
D8A7D984D8A7D8AAD981
5A69656C
7061727469636970616369C3B36E
7175656C6C65
D988D8B5
416E746F6E696F
6C73
646179
##7561726461
##D8B1D988D981
##D987D985D8A7
##666F7274
##6974746572
73656D69
##72C3A4
##C3B3726961
D181D183D189D0B5D181D182D0B2
6C6962726F
D0B4D0B5D0B9D181D182D0B2D0B8D0B9
##636F72
636F6D706C
7374726174C3A9
6572666F6C67
61766973
6D6164
53C3A36F
53707261
61707072
D8A7D984D8ADD983D988D985D8A9
666F72636573
##756C6F73
4F666963696E61
##7075746572
63756D706C69
D988D983D8A7D986D8AA
##66616C6C73
##6F6772C3A1
D183D180
636F6C6C65
##6174686F6C
D0B8D0B2D0BDD0BE
D181D0B2D0BED0B8
7675656C
617269
D0B0D0B4D0BCD0B8D0BDD0B8
6D656A
6179756461
D09CD0BED181D0BA
D0B2D181D0B5D0B3D0BE
6577
D985D8A7D8B1D8B3
656E666572
##D8ACD8B2
D185D0B0D180D0B0D0BAD182D0B5D180
526F636B
65737061C3B16F6C
D187D0B8D182D18C
3832
C3BA6C74696D61
##6964656E6365
64696666C3A972656E7473
66696C73
C3B66666
6E6F6D62726575736573
D8A7D984D8AAD8B5
##756E6674
616C676F
6DC3B663687465
656E636F6E74726172
##756C74757261
6C696D697465
4261686E
D0B4D180D183D0B3D0B8D0B5
636F6E73656375
##656C6C61
##D181D182D0B2D0BED0BC
D18BD0BC
6573747564696F73
636F72736F
4150
383030
D0BED0B1D0B0
74657461
##697273
6465706F6973
31393436
626F6C
4F63746F626572
696E7465726E65
6369C3B2
706572736F6E65
D0B5D188D0B5
D0B8D0B3D180
D0BED180D183D0B6
D0B0D0B7D18B
D182D0B5D0BA
##E0B89F
D0B2D0BDD0B8D0BC
70726F76696E6365
##70656F6E61746F
##69737473
31393534
##E0B980E0B8AA
##4543
6D616B616E
736567756972
4D6168
D8A8D8A7D984D8A5
5269766572
D8A7D984D8A3D8B9D985D8A7D984
##75676874
##6372697074696F6E
4E617A
D09FD0BED181D0BBD0B5
52696368617264
70726F6261626C65
##D181D0BAD0BED0BBD18CD0BAD0BE
6A656A
696E746572696F72
D093D0B5D0BDD0B5D180D0B0D0BBD18CD0BDD0BED0B3D0BE
##6D697474656C
53656E686F72
7369636874
637562
6175746F72696461646573
646574
4A616E75617279
##6C6F7373
7072696D65697261
646F63756D656E746F
70657570
D988D985D8B9
6C617373656E
637261
50617274
##D0B3D0BED182D0BED0B2
##D8B3D986
626566696E646574
##D8B3D983
D8A7D984D985D984
4A756C79
76696F
##D0B0D0BDD0B8D0BC
636F6E666C6974
##636F6C6F
4DC3A4727A
626F6D
6C75747465
636570656E64616E74
636F73747275
776F726C64
##D18FD185
72656D706C61
70726573736F
656C65637472
76C3A1
736974
##6D6973
7374616174656E
D187D0B5D181D0BAD0B8D185
D181D0BBD183D187D0B0D0B5
D0B5D0BBD18CD0BDD0BE
7465727269746F697265
##D982D98AD98AD985
6D6178696D
##D8AFD984
##6974696B
D8A5D984D8A7
6D656E63696F6E
48C3B6
##6964656E7365
6E6F6D696E
D0BAD0B0D0BC
736F636965646164
5061726C616D656E74
##74696E65
6D69656A7363
616D706C
##79C3B3
##D8A4D988D986
736F7374656E
7374656874
D8A7D984D8A8D8B1D986D8A7D985D8AC
6D656C686F72
73696D696C6172
D8A7D984D981D8B1D98AD982
D18FD0B2D0BBD18FD18ED182D181D18F
647A6961C582
D0B3D0BED0B2D0BED180D0B8D182
##E0B8B2E0B888
##746974756465
426168
4F4E
31393536
##736F636961
616E6365
6E7374
657374696D61
##D8A7D985D98A
73697475C3A9
##6E796D69
72C3BC
506C61747A
7465727265
##C582C485637A
##C3A4686C74
##66C3AD61
##66656E7365
62696C69
4D61C39F
##696E64756E67
63656E7472616C65
D983D8A8D98AD8B1
7061726D69
48696E
##C3B66666656E746C696368
61C3BA6E
5479
696765
##61757365
##D8A7D981D982
4A6F68616E6E
74617265
616C656D
696E636C756465
C3A972
66697363
74616D
77656C636865
507565
486F72
##D0B5D0BDD182D0B0
70617274696369706174696F6E
636F6D65726369616C
##D8A7D984D8A8
6369656E74
70726F796563746F73
657268616C74656E
6672C3BC
##C4997075
4469766973696F6E
696E74C3A97269657572
C3A9706F717565
##7672696572
##D8AAD988D8A8D8B1
##61726361
##C3AA6D
##D8ABD98A
65737065636965
##6E696B69
D181D182D180D0B0
C3A96475636174696F6E
636F6E6F
4372
526164696F
##776972
##696E647265
##D0B5D185
##D8AAD985D8A8D8B1
6361726174
706F6CC3AD7469636F
D8A7D984D8B9D8A7D984D985D98AD8A9
##636AC499
D0B5D189D0B5
6F75657374
D0B5D180D0BE
526563687473
6D6F6E74616E74
4E616D656E
##D8A7D986D8A9
D0BED0B6D0B5D0BD
D09BD0B8
6F676769
D187D0B5D181D182D0B2
##76657265
6164726573
##D181D182D0B5D180
64657373656E
4465737075C3A973
70756573746F
4B616D
6674
##686963
6C6F74
##70756E6B74
##C3BC74
##69726D61
63617261
##617761
646172617566
##D0B8D181D181
566F6E
4368696C65
D0B4D0B5D0BD
61626F
616E746572696F72
776F6C
323530
63756172
4C41
3036
##66C3BC72
656363
62616E79616B
64C3A873
D9A1D9
6F66696369616C
72657370656374
##657279
707265737570
D98AD988D985
D181D0B5D0BAD180D0B5D182D0B0D180D18F
70727565
3739
62656B
D8B3D8A8D8AAD985D8A8D8B1
##E0B888E0B8B0
##617A7A
61696C6C65757273
D0B8D0B7D0BCD0B5D0BD
##6E73
##6E69656A73
D0B0D0B3
70726F706F736974696F6E
726966
##656D62726F
##E0B884E0B8A3
##656C6C6573
D0BCD0B5D181D182D0BE
3833
6365727461696E
##E0B988E0B8A1
##D8A7D8AFD8B1
506F7274
D0BDD0B8D182D0B5
C3A974756465
D189D0B8D0B5
7365747A
D986D988D981
D0B0D0B2D0B3D183
D180D0B5D181D183D180
666F726D616369C3B36E
4A7567
D180D0B0D182D0B8
706572666F726D616E
4D616A
##736368696564
726F63
##74656C6C65
73656973
##70656E73
6465636C
D182D0BED0BA
D187D0B5D0BDD0B8D0B5
6E6F726D616C
##C3AD67656E
66696E616C6573
E0B897E0B988E0B8B2E0B899
##6F6E6461
D182D0B5D180D180D0B8D182D0BED180D0B8D0B8
##E0B8A3E0B8B2E0B8B0
##D188D0B8
6D697474656C
726567697374
##D182D0BED0BC
7065726D697465
##66616365
##D181D182D0BED0B2
##D0BCD0B5D181D182D0B5
666C75
##D8AAD8B1D983
616D706C69
6D6963726F
736F69656E74
4154
##72696D6F6E696F
##D981D8B1D8A7D8AF
D8A7D984D8AAD986D981D98AD8B0
##D987D8AC
##74696D6573
65727265
D183D180D0BED0B2D0BDD18F
636F7361
##E0B8B2E0B884
##D0B1D0B0
736572616974
747275
D186D0B5D0BBD18CD18E
C3A97669
6AC4997A79
D0BBD0B5D181
D8A7D984D988D8B7D986D98A
##C3AE747265
##D8B1D98AD984
##70657A
616C6F6E67
D984D986
D0BED182D0BDD0BED181
65646164
##7265696368656E
##7A617265
##72696B
66C3A97672696572
##D988D98AD984
706F75727375
D8A7D984D8ABD8A7D984
636F6D70C3A9
D187D0BBD0B5D0BDD0BED0B2
616C61
4D6F6E7465
6C656D656E74
D181D180D0B5D0B4D0B8
68696A6F
677574
##D0B1D180D0B5
D0B3D0BED0B4D0BED0B2
C3BA6C74696D6F73
D180D18C
##C3A874726573
31393439
6E616461
626C69
D0B8D0BCD0B5D0B5D182
6964656E746966
##79656E646F
D0B4D0BDD18F
74726F697369C3A86D65
66616973
6F7373
61626F67
776573
646F74
D0BAD0B2
##D181D182D0BED18FD189
##D8ACD8B1D98A
##7665726E
D181D187D0B8D182
D8AAD8B4D8B1D98AD986
72C3B3C5BC
3039
66C3A964C3A972
D0BDD0B5D181
D0A1D0B5
6465736172726F6C6C
656E736569676E
##63696572
61646F7074C3A9
##6C796D70
##E0B8A3E0B8B1
##697475616C
4B656E
D9A3
636F6E6F73
696E64757374726965
##D8B5D8A8D8AD
##D181D182D180D0B0D182D0B8D0B2
6D6574726F73
##63686172
4D61726B
D988D8AF
##C5BC61
6E69737365
##D0B2D0B5D180D181
44657A656D626572
636974C3A9
D8A7D984D988D982D8AA
696E6E
64757265
696E76657273
706F73736962696C65
42617263656C6F6E61
616E676C61
656C656B
6F6C6F
47726FC39F
61626F72
62656E6566696369
696E73747275
##70696E
D985D985D8A7
D8A3D983D8AAD988D8A8D8B1
##706C6963
73656374696F6E
72656E6465
##6963616D656E7465
D183D181D182D0B0D0BDD0BED0B2D0BBD0B5D0BD
##656E6E6573
31393539
76697665
##74696B656C
77697274736368616674
6C6F6361746564
7376696C7570706F
4575726F70656961
6D6F79656E
##D8B4D981
6D6965737A
584958
61636369C3B36E
70656E7361
6465627574
##7A696F
##D8A8D8B9
5477
4D617279
646573746163
D8A7D984D8A7D8AD
##E0B8B2E0B8A5
D0BFD180D0B0D0B2D0B8D182D0B5D0BBD18CD181D182D0B2D0B0
##776F64
D186D0B8D0B0D0BBD18C
706F6C6974696361
##616D656E74616C6573
##C5A1
6D75736963616C
72617070726573656E7461
536567757269646164
##D8AED8A7D8B5
416464
##C3A963
D0B2D0BDD0B8D0BCD0B0D0BDD0B8D0B5
D0B1D0BED0B2
6EC3A96365737361697265
7374727563
6B6C6173
C2B3
746563686E69717565
676C6F62
##D8A7D98AD8B1
D8A8D8B3D8A8D8A8
6D6F6C7469
6F64706F77696564
D0BAD0B0D182
65616368
4465726563686F73
737472756374757265
49736C616D
##E0B8B8E0B894
D0B3D0BED0B4D18B
##7461626C65
736369656E746966
##E0B8B9E0B881
##75706572
636C61737365
414E
D18ED189D0B8D0BC
D0B6D0B8D0B7D0BDD0B8
D0BCD0BB
42657267
4B756E7374
676F7665726E6D656E74
746970
##6772C3A873
53756C
537472656574
41667269717565
D8A7D984D8B3D984D8A7D985
636C65
4175746F72
5A61
D8A7D984D982D8B6
##D8B6D8B1
726573756C74
##757A
7A616368
##7269C3B3
646174
726F757465
48616E
63617264
66616369
##D8A7D8B9D8A7D8AA
C3816672696361
6E69656D
6B656974
D0BCD0B8D0BD
4E6173
##616C6C65
##756769
D0BDD0B5D181D0BAD0BED0BBD18CD0BAD0BE
##706F72746F
706F727475
7069616E6F
7072696E636970696F73
636F6DC3BA6E
D183D0BFD180D0B0D0B2D0BBD0B5D0BDD0B8D18F
D180D0B3
D182D0B5D187D0B5D0BDD0B8D0B5
D18FD189
6469737472696374
D0BCD0B0D18F
##6368696F
4865727A
##D983D8B3
##D181D0BAD0BED0BBD18CD0BAD183
696E64656D
46616872
##666173
D8ACD985D987D988D8B1D98AD8A9
##D0BCD0B0D182
6F666963
D180D0B5D0B7D183D0BBD18CD182D0B0D182D0B5
##6F726561
686F79
696D706F7274616E636961
65726D
766973616E74
##6F7065
657A
6E7565766173
656A656375
7A656974
##776F726B
636F6E766972
696E6175
##D0B5D0B2D180
##D986D985D98AD8A9
D0BED181D0BED0B1D0B5D0BDD0BDD0BE
##62616E67
4972616E
##74656C6C656E
##6F637570
D8A7D984D8B9D8AFD98AD8AF
736F757469656E
D8AAD8B9D8AFD8A7D8AF
626965746574
747970
76616C657572
427572656175
D180D0B8D0BC
##72696674
446F63
3831
617070656172
##726F70
##636B73
576567
D183D181D0BBD0BED0B2D0B8D18F
41636164656D
##D8ADD982
D982D8B1
6B61C5BC
646F6C
##D984D98AD988D986
##ABE0B988E0B887
63616265
D0BFD180D0BED0B5D0BAD182D0B0
##D0BFD180D0B8D0BCD0B5D180
5353
637565737469C3B36E
##63656C6C
444C
636F6E73747275636369C3B36E
##6369646F73
4C696761
##D98AD986D98A
C3A468
D984D8B9D8A7D985
6D696E65
457363
##E0B983E0B899
D0BFD0B8
6A6575
##73746177
65646974
6F636173
##74726961
646572726F
6F7267616E69736D6573
68617574
D0B2D180D0B0
437570
70616765
636963
##617472
4E6F75
##D8B4D8A7D8B1D983D8A9
74697665
##E0B881E0B8A5
61637469766974C3A9
447261
4672696564
##D982D8AFD8B1
6D69656D62726F
31393537
##76C3A973
D0B7D0BED0B2D0B0D0BD
##67656E6465
54656C
6C617374
##D0B0D0BDD0B8D0B5D0BC
726573746F
C3A974
##C3A463687374
C3A96CC3A96D656E7473
696D706F7274616E6365
7261676769
D8A7D984D8A5D982D984D98A
C39F656E
##D0B5D180D0B3
636F6D6974C3A9
74C3A474
D181D181D0B8D18F
7465737469
737569
7A6E
##D09F
D988D8B9D984D989
##C582656D
636F6E7365727661
736963686572
706F6B
D180D0B5D181D183D180D181D0BED0B2
7061657369
53C3BC64
627A77
D181D182D180D183
D8B4D8AED8B5
##D8B2D98AD8AF
73656E646F
D186D0B5D0BDD182D180
##616D656E74616C
D0A0D0B5D181D0BFD183D0B1D0BBD0B8D0BAD0B8
##D180D0BED0BA
##E0B8B2E0B881E0B8
7265616C697A6172
##D8B7D8A7D982
64C3A96D
4B6F73
53616E64
6D6F67C485
##D8A7D8A8D982
73756666
D181D0B5D0BAD182D0BED180
6E756E6361
##6F64656E
6D7563686173
E28496
##D983D985D8A9
666176
496E666F726D6174696F6E656E
##6164656E
D182D0B5D0BBD18F
5341
D0B4D0B0D0BDD0BDD18BD185
##74696D61
D8AAD982D8B9
6265736F696E73
736F6E67
D8A5D8AFD8A7D8B1D8A9
696E676CC3A973
##61647261
##63756C6F73
D188D0B0
D983D985
66616374
D094D0B5
D0B8D0BCD0BE
##656C6D
6E6F726D6173
##D988D8A8D98A
D187D0B5D0BCD0BFD0B8
##D8B3D8B3D8A7D8AA
726579
D0B8D18ED0BDD18F
6F7267616E697A616369C3B36E
##D0B6D0B4D0B5D0BDD0B8D18F
63656C6C
##6E656E74
6962696C
63656C65627261
6A7564
##D8A8D982
D8A7D984D8AFD988D8B1D8A9
D0BDD0B0D181D182D0BED18FD189
70726F7461676F6E
##6D616C73
##D0BBD0BED0B2
6F7267616E69
6D6F746F72
707574
4C6F6E64726573
636861726765
616E616B
446563656D626572
6E7565766F73
##656E74616369C3B36E
666974
666973
##746963616D656E7465
D0BBD0B8D188
D0BDD0B8D0B5
4179
646570656E64
637265616369C3B36E
70657273706563
3037
61727175
6578C3A96375
##6572736F6E
657374696C6F
##75657572
D0BFD0BED180D182
##6269646F
D090D180
D8B6D985D986
D0B0D182D0B8
616D61
4552
D0B3D0BED180D0BED0B4D0B0
##4641
74696E67
70C3A1727261666F
4C7578
6D6F737472
D986D988D981D985D8A8D8B1
D0B7D0B0D182
D8A7D984D8A3D988D984D989
##6B68
##656C6C656E
73706972
##696473
616DC3A96C696F726572
656E636F6E747261
647561
696E737469747574696F6E73
4275656E
##D8A8D8AA
706F757272616974
D8A7D984D985D8BA
6C6973
636F6E7369737465
6D696E696D
7A6F
##D0B1D18F
##D8ACD986
D0B7D0B0D0B4D0B0
6C6976656C6C6F
D0B8D0B0
7472656E
D98AD986D8A7
D985D8A7D98AD988
##61726B616E
6669726D61
7374726174C3A9676965
5241
62C499647A6965
697465
##6B616368
7065736172
D0BED180D0B3D0B0D0BDD0B8D0B7D0B0D186D0B8D18F
D0B4D0B5D180D0B6
##D987D98A
4D75736963
##6265736F6E64657265
31393437
7061726365
62657374696D6D
##69746172696F
31393338
746F757465666F6973
##74696774
##D987D8AFD8A7D981
##C5BC73
##696E6774
676972
4343
737570706F7274
696361
##69726564
##6669656C64
6265736368
##7572616C6573
446566
##737465727265696368
5472617461646F
72656C6174697665
##736368756E67
706973
546F70
4352
6A75726964
746F756368
##657373656E
##E0B88AE0B989
D8A3D8AD
456E676C616E64
D093D0B5D180
##D983D985
74657374
D98AD986D8A7D98AD8B1
6A65646E616B
##C481
##D992
##D8ABD8A7D984
##7874
##626569
6D696E697374C3A87265
##D18BD188
E0B980E0B881E0B8
617175C3AD
E0B8A3E0B8B0
C3A97369
4D6172C3AD61
D09ED0B4
68C3B4
696D706C
##D8B2D985
6974C3A474
63656C6C6573
##656C6C656D656E74
##7461646173
##4D41
##A2E0B982
756C61
##6568656E
D0BFD180D0B0D0BAD182D0B8
##6B6F6D
72756D6168
7175616E64
D988D8AE
D8A2D8AED8B1
6C6F676F
##6165
446F64
D183D0B0
5041
6F7474656E
627564676574
736F7274
##D182D0B5
##67657374656C6C74
D988D8A7D8B3D8AA
##67656E636961
D8A7D984D8A8D8AD
D8B9D8B6
636F6D6D697373696F6E
72656769737472
6573656D70696F
66617A6572
5265636F726473
61637475656C6C656D656E74
6D616368
736168
E0B881E0B8B2E0B8A3E0B8
6D657461
53756D
D8A7D984D985D8AE
486F7765766572
45737065
646973706F6E69626C6573
##6C616E67
737567
##C3A4747A
##61756572
706C616E65
706C696B75
437275
D0BCD0BED0BC
##D8AFD8B1D8A7D8AA
##686D6572
7072C3B370
706169
636F756C64
6765737469C3B36E
D8A7D8AAD8AE
66616C7461
D988D8AAD8B9
617474726176657273
D985D8AED8AAD984D981
##626174
D8A8D986D8A7D8A1
##66696C
696E666F
4F7374
D0BED0B2D0BE
72657465
726573706F6E736162696C6974C3A9
6A6564656E
D8A8D8B7
D181D0B4D0B5D0BB
67616E7A
##E0B89BE0B8A3E0B8B0
##6962696C69
##696E646F
##7A69616C65
556E69766572736974C3A474
736568656E
##69736365
73656C6563
526569
656E7175C3AA7465
4D6F6C
C3A97869746F
C388
656E7472C3A965
##7072C3A873
D183D0BC
7274
##7465696E
7279
D8A7D984D984D987
##67756573
##C5826FC59B6369
70C3A87265
##69646765
##69656E7A61
6C616EC3A7
##72C3BC6E
##77657374
73656D7561
7365C3B1616C
42756C
4465736172726F6C
626F73
D0B5D0B4D0B8D0BD
##7570617274
46C3BC72
6D61647265
D8B9D986D8AFD985D8A7
7365636F6C6F
4C6F72
##6574746F
72C3A0
D180D0BED0B2D0B0D182D18C
##D0B0D0BBD0B0D181D18C
7769
313736
##D8A7D984D985
706C7570617274
64696A6F
6A6F75726E616C
666F726D6173
4F4D
D985D983D8AAD8A8
##7A69C499
##746B6F77
616C74
D0BED0B2D0B0D0BD
746F6C
7069656E
70686F
566172
5349
D8A7D984D985D988D8A7D8B1D8AF
476F757665726E656D656E74
31393138
D0B3D0B5D180
##756179
##70726F776164
##D983D986D988D984D988D8AC
6D7564
##6369656E746573
D183D0B7
5769656E
C3A8726573
##D181D0BAD0B8
65737461626C
C3A76F
##E0B8B1E0B88D
696E646976696475616C
506564726F
31393336
6D696C6C696F6E
61757072C3A873
D181D0BFD0B5D0BAD182
766572646164
616E616C797365
D8B3D983D8A7D986D987D8A7
696E697A69
65736F73
D181D182D180D0B0D0BDD0B0
6C656674
6F6E6F
31393532
##64616D
D8A7D984D8B1D98A
6164646974696F6E
4379
##6574C3A0
666162726963
D091D0B0
D091D0B5D0B7
67726FC39F65
##E0B8A7E0B988E0B8B2
D0B8D18ED0BBD18F
##69656E746573
63656E74757279
D8A7D984D8B3D986
D8A3D8B3D8A7D8B3
72C3A973656175
##D981D8A7D8B9
4C696D
##72696562656E
7472616974C3A9
70616C61
70C3BA626C696361
##C3A76F73
6E616D6564
74657272656E
D0BCD0B5D0B6D0B4D183D0BDD0B0D180D0BED0B4D0BDD0BED0B3D0BE
##69676F73
D988D8A7D984D8B3
##686573
##D981D8B8
476F6C64
D0BFD0BED181D0BAD0BED0BBD18CD0BAD183
68696C
##A2E0B982E0B8AE
646F6368
D184D0B5D0B2D180
##E0B8B4E0B887
D09DD0BED0B2
D8ACD8AFD988D984
##D8A7D8ACD8A7D8AA
D090D184D180D0B8
##696F6E656E
##7AC3B673
##616374696F6E
##3430
D0B2D0B0D180D0B8
41646D696E697374
D8ADD8A7D984D8A9
##C3A47265
##D0BED0BDD0BED0B2
4C616E
##616E6569726F
556E69646F
68656C64
7265666F726D
##3132
##686164
666F75726E
##66657261
7465727269746F7269
D984D8A3D986
##D8B1D987
##6B7479
D094D0BE
D181D0B5D0B1D18F
##D8A7D8A8D984
6465726E69C3A87265
##757369
7265747261
4C6574
5365697465
D0B2D0B5D181D182D0B8
706F776572
6D696E61
D18DD0BBD0B5D0BAD182
736F667477617265
##616C656E
656469666963696F
D8A3D987D985
31393535
D0B4D180
##3330
74C3A96CC3A9
44617465
42C3BC72676572
##757473636865
6C6C656E
4879
D0B2D0BCD0B5D181D182D0B5
6DC3A964696361
D0BFD0B0D181
D181D0BED0BA
##4241
D0B4D0BED181D182D0B8
456E7473
##616D65726963
766964
6164756C
706F73736962696C6974C3A9
46756E6B
##686C65
4C616E67
D183D181D0BF
636F6E74656D706F72
D185D0BED0B7
##65646573
726170706F727473
64656A
4D61726965
7072617469717565
6D65646963
##77C3B364
6D656D62657273
6573637269
##6AC3A9726369746F
D98AD8AF
6C757A
##696D69656E746F73
49726C616E64
676562
##7469747564
646574656E
##69746163696F6E6573
636F6E6F6369646F
##74656B
63726974
746972
6DC3A9746F
##746F7273
766973746F
##E0B890
636F6E74726174
##6469656E
66696E616E6369C3A87265
6CC3A967
6469766572736F73
64657361
476173
726570726F
##D0BED188
646F63756D656E7473
636F6E736163
D0B1D0B0D0BD
736169
617563756E65
6C696665
##6E657273
##667265
4E616D
##61696E6573
61756D656E746172
677279
4B6972636865
63616D65
636F6D6D65726365
656E7468
##E0B8B2E0B8AA
6B6C69
6E6469
67647A6965
4B656C
D8A8D8AFD8A3
67616E67
726174696F6E
766973697461
##6C6176
696E7369656D65
646164
6E7574
##D0BDD0B5D0B5
777973
617563756E
63616E616469656E6E65
E0B980E0B88A
D8AAD985D988
6E65686D656E
D092D181D0B5
64C3A963616461
##6D656973746572
##E0B8A3E0B8B7E0B988E0B8ADE0B887
##D982D985
476F6C
##D8A7D98AD8A9
##6E63696173
##64616E
D0B2D0BED0B9D0BDD18B
4D757365756D
D09FD180D0B8
##C3AD6C6961
6461706174
D988D8B4
646F7374C49970
##6C616D656E746F
67726FC39F656E
696C65
6D69C499647A79
##6F77796D
##7A6E
697175C3A9
746F6F6B
##E0B8ABE0B8A5E0B8B2E0B8A2
417274696B656C
7765696C
7567
##D0BED0BBD0BD
6D616E646174
##70756573746173
##66656C64
##696769
##D982D8A7D984
6D6172717565
73656F72616E67
D8AAD98F
656C656D656E746F73
4875
D0B5D181D182D18C
##6965726F
706175
##E0B8B2E0B895
D0BFD0BED0BBD18C
D182D180D0B5
##D0BCD0BED182
D981D8B9
##D988D8B1D988D8A8
726567726573
45617374
##5644
D181D182D0B0D180
##D8B3D8AAD8B1
##667261
636F6D70616E79
D984D8AC
6C6562
657374C3A36F
##C3BC6C
70726567756E
##756E6961
C3B672
D185D0BED182D18F
##D0B5D0B4D0B8D0BD
D0B2D180D0B5D0BCD0B5D0BDD0B8
69746F
##D988D8A7D8AC
##D8B3D8AAD8A7D986
436872697374
72756E64
636F72706F
616E7A
626177
##6761646F
##706F63
616C726564
676479
D0A1D0A1
##6B696E67
616D626F73
4D61726B74
##D986D981D98AD8B0
48656E7279
D8A8D980
##D984D8B3D8B7
496D706572
##D0B8D0BBD0BE
D0B7D0B0D0BD
D0BED182D0BAD180D18BD182
##6E657373
656865
D0B7D18B
6973636865
436F6D70616E79
73756363C3A873
506F6E
##D0BFD0B0
##C3A46E676572
4C616E646573
##636F757273
##69727365
436F737461
7072656F637570
4C6562656E
7374656C6C656E
50726F6772616D6D
##616D79
6C617267
##D0B5D0BDD0BDD0BED0B9
7265636874
726572
D181D182D0B2D0B8D18F
D180D0BED0BBD18C
E0B895E0B988E0B8AD
##69676E65
##637A6567
4469656E7374
46726175
66696572
##D0B8D0BAD0B0
736974696F
##D0B5D180D188
##6D697465
736F6D6D65
65737461646F756E6964656E7365
##72C499
E0B894E0B989E0B8A7E0B8A2
697469
7461726961
696E736265736F6E64657265
##D0B8D182D0B0
##6163746572
##757269
65636F6EC3B36D696361
73756C6C65
##C5826F6E
50617373
4E616A
##E0B8A5E0B8B1E0B887
D0BAD182D0B8
D0B8D0B7D0B4
6E6F69
##D0B0D0BBD18F
D8A7D984D8AAD982D8B1D98AD8B1
D8AAD8ADD982D98AD982
##6976656E
717565737465
##C3AD6F73
##6F676C65
7374616E64617264
6C6970
##6A656D79
62656B616E6E74
61726D61
6C65747A74656E
736F67
73756C6C
62C3A2
##D986D8AFD988D982
##E0B989E0B8B2E0B899
4C6F69
6F726F
6767696F
E0B981E0B8A5E0B989E0B8A7
6F6274656E6972
53756E
63617465676F72C3AD61
70656D62
D187D0B5D181D0BAD0BED0B3D0BE
313630
57697274736368616674
##6769717565
C3A46C
D8A7D984D8B9D8A7D984D985D98A
72656D6F
536963686572
6C69626572746164
4961
6974616C69616E6F
676C
C3A96E6572
70756E746F73
##6E6975
6170C3B373
74726174
646562617465
##D8A7D981D8ADD8A9
D8A7D984D985D8ACD8AAD985D8B9
436F6E67726573
##776973
##D8A7D981D98A
D0BDD0B0D0BFD180D0B8D0BCD0B5D180
46616C6C
D984D8A7D8B9D8A8
##707473
7374727574
726F6C
476162
D985D8ADD985D8AF
D0BFD0BED0BBD0B0
D0B8D0BDD181D182
D0BAD0BED182D0BED180D0BED0B3D0BE
666575
##726F6D
656C6573
7661726965
##D982D8A8
C3A474
436F6E666572656E636961
##D986D8A7D8A6D98AD8A9
7370656369616C
6D6F64656C6F
6D6563616E
##D0B0D182D0BED180
##D8A7D8B9D98AD8A9
506F6B
##D982D8B1D8A7D8B7
64696666C3A972656E746573
##D8ABD985
4147
##C3B6676C6963686B656974
D0BAD0BED0BDD186D0B5
72696E67
6F626A657469766F73
##656C7465
D0BFD0B5D180D0B5D0B2
61726F756E64
6D616767696F72
##616B746572
D8A5D8ADD8AF
636F6E74696E7561
6D6172636861
C3A26765
7373656D656E74
74656C65766973
536565
7465727365627574
##75636874
D181D180D0B5D0B4D181D182D0B2D0B0
D0A4D180D0B0D0BD
##62617574
66616D69676C6961
636F6C61
D0B2D0B2
466C7567
C3BA6E696361
6F726967656E
D8A7D984D985D986D8B7D982D8A9
7374696C6C
6C69767265
D8A7D984D986D8B8D8A7D985
617369
66C3AD73
##D0B2D0B0D0BD
67656874
7065726D6973
##79616B
##6962656E
D8AFD8A7D8AE
48696C6C
D8ABD984D8A7D8AB
31393533
70726F64757A
##6C616E6465
D0B0D0BAD182D0B8D0B2
##D982D8B1D8A7D8B1
##D0B6D0B5D0BDD0B8D0B5
D0BAD183D0BF
D0BFD180D0B5D0B7
77657274
6D65746F
53706F7274
70726F666974
##D8AAD984
##65637A
6672656375
706F6472C3AD61
D988D98AD986
6369726375
D0B5D0B8
676172616E746972
646972656374657572
5374756469
D8A8D8A7D984D8A3
##6F6C6173
72696365726361
7365756C
6E656365736172696F
D8A3D985D8B1D98AD983D98A
D0BDD0B8D187D0B5D181D182D0B2D0B0
70656C6F73
##D8B9D98AD8AF
626168617761
736170
31393531
7265C3A775
##72C3B364
##6163796A
##65747461
##73756E67
##D8A7D981D8B8D8A9
E0B897E0B8A3E0B887
65736F
D8A7D984D985D8B9D986D98AD8A9
##6572617573
##616E676B616E
73797374C3A86D6573
62C3A173
##6368656964
73746167696F6E65
6E6F726D61
526567696572756E67
D181D182D0BED0B9
74656C73
62756174
##74616B74
6461646F
D188D182D0B0
D182D180D0B0D0BDD181D0BF
##626572617061
4465736172726F6C6C6F
637AC499C59B6369
5363687765
##D98AD8B1D98AD8A9
##72657374
427275
##6D616E64
##E0B8A7E0B881
C3A9726572
D0BAD0BED182D0BED180D0BED0B5
4D6967
766567
##636B65
##6B6965676F
746F6D6172
6169726573
70726576656E
70726F6D6F74696F6E
##6B656C
##D8B6D985D986
73696572
636F6D706F727461
7665727369C3B36E
50696E
D0BDD0B0D0B7D0BDD0B0D187
##756765
##D8BAD984
##69766F73
4A61687268756E64657274
47726F7570
D0BAD0BED0B9
##656D656E7465
646F6E6E6572
D0B2D0BED181
D188D0B5D0BD
##D8A7D8AFD8A7D8AA
676568656E
D0BFD0BED0B1
##616769616E
66617374
##D188D0B8D0B5
736F6C6964
D181D0B5D0BDD182D18FD0B1D180D18F
737566696369
D8A7D984D985D8B9D986D98A
6E6974
##7469616E
D0B8D180D0BED0B2D0B0D0BDD0B8D18F
766F6974
D0B8D0BB
D0B0D0B2D182D0BED180
696E746974
636F6E666F726D65
64656D6F
7367
##D18FD0B9
##65726965
##61637A
726973717565
D181D0BBD183D0B3
##6F776965
D984D8AFD989
726973706574746F
##C3A9646961
6E6563657369646164
##D0B5D0BBD0B8D0BA
657865726369
736D616C6C
6D616368656E
616365726361
##D8A3D984D8A9
##636F7264
##5441
D8ADD988D984
65696E676573
62657374656874
D180D0B5D188D0B5D0BDD0B8D0B5
5275
736172C3A0
6170726F78696D
##74626F6C
64656E6E
D984D983D986
646972696765
##D188D0B5D0B3D0BE
C3A96D697373696F6E
##D8B1D8A8D98A
##61746F72696F
C3A473
6F74746F
D0B2D0B8D0B2D0B0
##636F6E6F
##64696E6773
63617272657261
4F53
6A6F67
D8A7D984D8A3D8B9D8B6D8A7D8A1
65726E65
6861626974616E7473
6265736F696E
456E6572676965
6C656769
7072696D69
546563686E6F6C6F67
6E6567657269
6964656E7469666963
D8A7D984D985D981
436162
##7061727469
7072657365
6169646572
C581
D181D182D180D0B0D0BDD0B0D185
636F696E
##D987D984
63616E7469646164
7A656E74
D18FD0BDD0B2D0B0D180D18F
6E6562656E
D0B0D0B7D0B0
706F73696369C3B36E
50726F6772616D61
5961
66C3BC6E66
4D657373
##746F7279
646973636970
697661
##7A616E
D0B8D0BDD0B8
7A6572
617262656974
74656D6173
D181D182D180D0BE
##6F7264656E
##7469747565
##C3A9676F72
576569
746563686E6971756573
57617273
##6F756768
726E
64C3A9636C61726174696F6E
6E696D
D0B5D0BBD18F
##76C3AD61
636C6172
617473
##7461696C
##706C69
E0B8ABE0B8A3E0B8B7E0B8AD
##69676E61
4F75
D985D981
##746961
6C617562
4449
##656E746173
D180D0B0D0B4D0B8
C3A9636F6E6F6D6965
##D8B1D8A8D8B9
6A7572C3AD64
4E6176
66616E
696E737469747563696F6E6573
##65747A756E67
70617469
##D98AD986D8A9
61626974
66696E616C6D656E7465
C3A974756469
7566
73686F
48616D
41757373
C3A96C696F
##D8A7D8B1D98AD8B9
70726F707265
##D0B8D181D0B8D0BCD0BE
##7769C4996B73
D8A7D984D8A3D8B7D981D8A7D984
##D988D8A7D8A1
737475
##D8ADD984D8A9
6E657373
##D8A7D8B1D98AD8B1
##C584736B69
##746168
##74686F756768
76696F6C656E6365
##7573616E
D09CD0B5D0B6D0B4D183D0BDD0B0D180D0BED0B4
42696C
D0B2D0B0D182D18C
D0B4D0BED180
6772617665
31393333
D0BAD0BED0BBD0B8
31393337
6A7572696469717565
D0B4D0B5D0B2
6F7A
##636964656E74616C
64617469
70726F646F747469
726573706F6E7361626C65
6469766572736173
##C582756D61
4D616973
54776F
63C3B36D6F
##D0BAD180D0B0
636F6D706C657461
7072696D65726F73
D8A3D8A8D8B1D98AD984
##81E0B988
##D988D981D98AD8B1
72C3A967696F6E73
##79616E
72656769C3A36F
##696464
D181D0B0D0BCD0BE
D0BDD0B0D181D182D0BED18FD189D0B5D0B5
D0BCD0B0D182D0B5D180D0B8D0B0D0BB
70726F6A656374
D8A8D985D988D8ACD8A8
5A7567
6562656E66616C6C73
D0BAD0BBD0B0D181
6172726976
6275696C74
417374
313735
496E76
##63656D
72656C617469766573
6B74C3B37261
76696465
73746572
696E64757374726961
62696C6974C3A9
4772C3BC6E
D8A7D984D8A5D986D985
##D18BD0B2
##C3A96C
##C3BA74626F6C
D0A1D183
696669636174696F6E
##D0B2D0BED0BB
626567696E
D0BAD0B0D180
666F746F677261
D8A3D98AD8B6D8A7D98B
7779736F
##4F4D
496E63
D0B3D183
6A757374696365
##756D656E746F
646966666963696C65
D8A3D986D987D8A7
4341
686F6D627265
D180D183D181
7472C3AA73
6B67
7669656E74
5072696D6572
D0B7D0B0D0BDD0B8D0BC
6E6F7661
6D6169736F6E
477265656E
D0B2D0BED0B7D0BCD0BED0B6D0BDD0BED181D182D18C
E0B980E0B89EE0B8A3E0B8B2E0B8B0
56696E
7A6961
66C3A972656E6365
##EFBBB7
6C75636861
##6F7461
D0B5D0BCD183
##C3A872656E74
D8A7D984D8B7D8B1D981
##72697A
6E656D
537072
D0BBD183
6578657263696365
##756EC3A463687374
##D0B4D0B6
E280A0
686C
D0BFD0BED0B4D0B3D0BED182D0BED0B2
62656361757365
D092D18B
73706F
4B6C65
D0BED0B1D18B
##7A69656A
##67616E67
##D982D8AAD8B5
##C485C5BC
5072656D69
D8A7D984D8AAD8A7D8A8D8B9D8A9
##D988D8A1
D0A6D0B5D0BDD182
726573756C
68697374C3B372
4665627275617279
D8ADD98AD986
6E75657374726F73
D8A7D984D8ADD983D988D985D98AD8A9
##D8B6D984
##E0B8B8E0B895
616E6369656E
##697A6172
746574
657369
##7472C3A9
D8A7D984D985D8B3D8A7D8B9D8AFD8A9
##70617261
##757275
56657277
##7A61686C
65726572
##77656E646574
636F6C65
##E0B8B2E0B89E
##6AC48563796368
6D6F7576
506965
4B6F6E67
D0B7D0B0D189D0B8D182D18B
D0BED0B1D180D0B0D0B7D0BED0B2D0B0D0BDD0B8D18F
##616B73
D0B3D0BED182D0BED0B2
D0B8D0B2D0B0
656E676167
##7468657273
31393139
6675726F6E6F
656E74C3A36F
746167
4DC3A173
6F7574726173
757374
##7568616E
63C3A96C
616D706C6961
D8B4D8B1
706F64656D
4C756973
70696C
D8A7D984D8ADD8AF
##697461726961
766F6965
##C3A163746572
657370C3A86365
5570
##D8B6D988D8B9
72C3A967696D65
5A696D6D6572
D0BBD0B8D188D18C
6C65737175656C
D8A3D981D8B1D98AD982D98AD8A7
6D696C696575
756572
6973746F
72657175
##D98AD986D8A7
766169
E0B89F
##69657572
6669677572
D0BDD0B8D18E
##C3AD646F
6C6F72737175
D189D0B5D0BD
466F6E64
636F6E737469747565
##63C3A965
7265636569766564
D8A7D984D981D982D8B1
72657365
4DC3BC6E
6D616E696665737461
##72696564
70726F7069
67616D
##C3B36469676F
D18DD182D0B8D0BC
4D6178
63686965
D0BDD0B4D0B5
6B6F6C656A
##62656E65
76657265
66756E6369C3B36E
D0BED0BAD182D18FD0B1D180D18F
D181D0BED0B3D0BBD0B0D181D0BDD0BE
53616E746F
706172746963756C69C3A872656D656E74
##D8B7D8A7D8AA
61637475616C6D656E7465
D985D986D8B8D985D8A9
D988D8A7D984D8AD
D181D0BED0B1D0BED0B9
D8A7D984D985D8A7D984D98AD8A9
4C6162
6F626A65746F
##77657273
D8A7D984D8ABD8A7D985
##454C
D0BCD0B0D180D182D0B0
4641
416264
6164656375
63616E6369C3B36E
D181D0BED0B7D0B4D0B0D0BD
##646F62
6C697374
77696368746967
D8A7D984D8A7D8AAD8ADD8A7D8AF
6576656E74
6D616E65
##D988D8AB
776973
D185D0BED0B4D0B8
61646F7074
##6D696E75
##6B6CC3A472
6D656E6F
43686963
7072656D69657273
746572636572
706163
##D988D985D8A9
636172C3A163746572
##D0B7D183
646175
D0BED18F
D181D0B2D0BED0B5D0B3D0BE
61707265
63756C747572616C
##636B656E
D18CD18F
54726162
63616C69
74756D
5761
##D8A7D982D8B4
656E66616E74
##D185D0BED0B2
656E7A
##6D696E69737472
736572766972
##D98D
63697263
D181D182D0B0D182D18CD0B8
##D0BED0BBD0B5D0B5
##D8A7D986D8AA
746F74616C65
636F6E666572
4E61747572
EFBBBB
##62696C69646164
##D8A7D986D8A7D8AA
6D69656A736365
54756E
476F6F676C65
6C6C616D61646F
6E756F7661
566973
##D0B0D181D181
##62756174
##6368616E
##D8ADD8B5D8A7D8A1
636F6E647563
##6273
##746563
##657461
4D72
##697A6564
##C5826F64
6D616B65
6D69657578
796F75
##D988D8A7D984D98A
D184D0B8D0BBD18C
D0BCD0B5D0B6D0B4D183D0BDD0B0D180D0BED0B4D0BDD18BD185
50726F6A656B74
##D0BCD0B0D0BD
##6F6E64657273
77697468696E
D0A2D0B0D0BA
7665726B
4275656E6F73
646967756E616B616E
4D756C
657269
##E0B8B2E0B894
5072656D696572
D188D0B8
D981D8A8D8B1
4B696C
##727977
E0B8A7E0B8B1E0B899
766572736368696564656E656E
4F6C796D70
##646F6D
6573706163696F
4169726573
6C6567616C
##63796368
##617975
706F73697A696F6E65
66656D6D65
D0B0D0B4D0BCD0B8D0BDD0B8D181D182D180D0B0D182D0B8D0B2
626172647A6F
##4544
##D983D8A7
7072C3A963C3A964
##62696E
##D0B4D183
617070617265
6B74
D182D18F
6F6C64
##D8B3D8B7D8B3
414C
74756E67
##D0B8D0BDD0B3
646573656E766F6C76696D656E746F
636973
##6F6C6F676961
736F727465
##726F74
##616E6173
63616C63756C
##D8A7D8A6D8AF
4772656E
636172616374C3A9
646973747269746F
6C6177
70756573
##6E69C499
62616E6B
D0B0D0BDD0B8D18F
696D70726573
##D8ABD8A7D8B1
656E6572676961
D0BBD0B8D186D0B0
D8A8D8A7D8B3D985
6B657469
534D
##61646572
426569737069656C
617572616974
E0B980E0B89EE0B8B7E0B988E0B8AD
6E6F6D6DC3A9
707562626C696361
D180D18F
707573
D090D0B2
6D657373
71756973
656E636F7572
##D8A7D8A6D8AC
D8A7D984D8A3D8AF
##64657465
##D985D8AA
E288
##D8ADD983D8A7D985
##D18FD0BC
##617373756E67
64757261626C65
##D983D8A7D8AA
##C3AD6D
43656E746572
456D70
##D988D98AD8AA
414D
617272
50656C
D9A4
##6572696B616E
63686163
73656A61
4D41
556C
D984D985D986
46726569
656E747261C3AE
D180D0BED180
##636975
707269736F6E
4DC3B6676C6963686B656974
D0BFD0BED0BBD0B8D182D0B8D0BAD0B8
7370656369666963
72696361
##74726963
746F726E6F
4A6F7572
##C3A4636865
53616E7469
##D0B5D188
D981D8A8D8B1D8A7D98AD8B1
6C617465
7069C3A8
72C3A966C3A972656E6365
D0BBD0B5D0B2
4E6F74
##6F6465
696E697A6961
D8A7D984D985D8A4D8B1D8AE
D0BAD0BED0BDD184D0BBD0B8
6D696E75746F73
##6368746572
506F77
696E74C3A972C3AA74
373030
416C656D616E6961
##D181D182D180D0BE
##79696E67
436F7061
7072697365
7075626C6973
##76656D656E74
D095D0B2D180D0BED0BFD0B5
D0BED0BCD0B8
6372C3A9C3A9
72656E74
##D8B0D983
6B6572616E61
D0B5D0BA
6575726F70C3A9656E
6974C3A973
##7961756D65
##E0B8B4E0B8AA
##6D696E616C
D182D0B8D0BD
##6E6174
736572766564
6D756368
D984D8AFD98A
##616A61616E
##61697465
##6469756D
4A6168726573
6EC3A965
D8A7D984D982D8B1D986
6973737565
4672656E
D8B9D8A7D985D8A7D98B
##C3AD70696F
676769
D8A7D984D982D98A
D8A7D984D8A8D986D8AF
##D982D8AFD985D8A9
##D8B2D8A7D984
46726175656E
E0B899E0B8B5E0B989
##616E67656C
636C696D61
427574
72656375706572
D988D8A7D984D986
##6461646573
##D8B5D8A7D984
##616A6573
74726F75766572
6170726573656E7461
526F6D616E
68616C74656E
7265696E
73696465
##D0BED0B3D180D0B0
D8AAD981
416C746572
D0B2D0BED0B7D180D0B0
6174726176C3A973
D0A3D0BAD180D0B0
D0BED184D0B8
##747269656C
D0BCD0B5D0B4
6469766973696F6E
##756E67616E
##C48D
##D189D0B5D0BDD0B8D0B5
68696A6F73
616D6F
D988D8AAD985
D8A3D8B5
##737465696E
61747465696E74
4944
636174C3A9676F72
##E0B897E0B8A2
##D0B8D186D0B8D0B8
566965
##D98AD985D982D8B1D8A7D8B7
6D6F79656E73
##7479637A
6E636573
69737469
43687269737469616E
##D0BED0BBD0B6
636F6D7072656E
6B6F7374656E
76657279
496E737469747574
44616D
7370C3A96369
D0BDD0B5D182
##6D616E6465
676562656E
64C3A96C69
636F6D6D756E6573
445644
736562656C
6E656761
##C3A4756465
##616C6C656E
D181D182D0B5D0BF
##616767696F
##646179
6D696368
73746F70
C3A96E6572676965
63617365
657870657269656E636961
416E6E
##C3A87365
D0B4D0B5D18FD182D0B5D0BBD18CD0BDD0BED181D182D18C
##D98AD981D8A9
7265746972
##6D61676E65
##726569636865
D984D984D8AD
7465C5BC
616E74696775
##D0B0D0BBD18CD0BDD18BD0B9
64656D69
6E6461
D8A7D984D986D8B8D8B1
D8A7D984D985D8AFD98AD986D8A9
E0B981
##69656479
6C657175656C
657069736F64
E0B884E0B8B7E0B8AD
##D8B9D8B1
##756E73
486F6D
##696666
74656E73
##6967756E67
65666563746F73
7375697669
736F63696574C3A0
6361727265
##65646961
7761746572
6A75C5BC
696E6E657268616C62
44616E69656C
D0BBD0B0D0B4D0B5
7A6162
6B756C
706F64637A6173
##7A617A696F6E65
D8A7D8AD
72C3A9706F6E7365
73617265
64727567
5365726965
C3A9676C697365
70657274656E65
7065726D616E656E7465
616D656E7465
D0B0D180D0B8
##72657A
7175616C71756572
6D696E6F72
D0BAD0BED0BCD0B8D182D0B5D182
C3B37267616E
6D7574
##E0B8B2E0B897
D183D0BDD0B8D0B2D0B5D180D181
D988D8A7D8B3
4C6F7273
D982D98A
##D0BDD0B5D0B3D0BE
##D983D8AF
5268
##D8B8D981D98AD986
5370616E
D8A5D8ADD8AFD989
##E0B989E0B8B3
6175746F726974C3A973
D0A6D0B5D0BDD182D180
736563617261
D983D8AA
736572C3AD61
D0B4D0B2D0B8
##6D656E746174696F6E
6E6F6D6272
##7669C3A9
4E6F73
313730
646978
64697265636369C3B36E
D180D0B0D0B7D0BBD0B8D187D0BDD18BD185
##7469737461
D181D182D0B2D183D18ED189D0B8D185
D8A3D8BAD8B3D8B7D8B3
656E736569676E656D656E74
31393334
##D986D8B3D98AD982
76657277656E646574
4C6973
##6170616E
D0B2D0B8D0B4D0B5
636976696C65
##636F6C61
6D6F7469766F
646573637562
706172656365
6465617468
6A616D616973
66697665
##6C657073
##797369
647563
746578746F
D0BED0BAD0BED0BDD187
##C3B3C5BA
746574617069
63657263
6D656A6F726172
##6D656C
D0B6D0B4D0B0
6772617A6965
D0BCD0B5D182D0BED0B4
C3A9637269
70726F70696F
6176656E
##D8AAD985D8A7D8AF
6175746F6D61
7669656E
636F6D62696E
E0B980E0B8A3E0B8B2
##D0B7D18BD0B2
616374697665
6F626A656374
D986D8B8D8B1
##6A6564
##C3A46E6465
D8A7D984D8A5D8B3D984
D0B3D0BED0B4D0B0D185
6A657765
6F6672656365
6C6576656C
##696B616E
##D8A7D8B5D984
73696F6E
73656D626C65
696E676C6573
696E74656E73
64656C65
447572696E67
D985D987
706F6472
53656974
D988D8B7
616374697669646164
4368616D70696F6E73686970
457370656369616C
646973706F6E69626C65
D0B7D0BDD0BE
##636964656E7465
6C6C65676172
6C696761
##636575
##77656C74
D0BFD180D0B5D0B4D0BB
##636974
D8A7D984D8ABD8A7D986D98AD8A9
676F64
706572C3B2
D0B0D0BFD180D0B5D0BBD18F
5365C3B16F72
617572
##D0B1D0B8
72656C617A696F6E65
D0BAD0B0D0BD
706F627265
63656E747261
31303030
##63656E7465
##61686B616E
D181D182D0B2D0BED0B2D0B0D182D18C
77616E
4B6F6C
7265756E69C3B36E
73C3A96C656374696F6E
43696E
D8AED8A7D8B5D8A9
D8A7D984D8AFD8A7D8AE
##D0BBD0B5D0B4
416C67756E
D0BED0BAD0BED0BBD0BE
6D616C6164
6F70C3A9726174696F6E73
686169
7361746973
656E676167656D656E74
##E0B980E0B894
D8A7D984D8A3D8AE
D181D0BED18E
74617269
466163
61726DC3A965
696E7363726974
70726F666573696F6E616C
D988D8A7D984D985D986
##D8AAD8B1D8AD
636F6D706C6574616D656E7465
5175C3A9626563
53616C76
636F6E666F726D69646164
##73747265
696E746572C3A973
4F70656E
4461746569
646966C3AD
6574776173
D8A7D984D8A8D8B4D8B1
73616964
6C616E677565
626F7264
72656D61696E
63757272656E74
D8A7D984D8A3D8B4
64657574736368
6D757365
31393335
7072C3A973656E74C3A9
636F6D6D756E69636174696F6E
6D6170
72656C61746966
776567656E
##D98AD8A7D8A9
6E61747572616C65
636F6D656E7AC3B3
D988D8A7D984D8AF
4C6175
437572
5965
D0B8D180
##69636874756E67
D188D182
D8A7D984D8ACD985
##D8AAD8A8D8B1
73746F726961
C3A16D62
D8A7D984D8B9D8A7D985D984
6E65636573696461646573
7472616E73666F726D
636F6E76657273
D185D0BED0B4D0BED0B2
447562
7361626572
D8B7D984D8A8
##706F72746564
73656D616E61
##656E7365
6368C3A9
636F727073
##6965737461
706F7A
456172
5061726C656D656E74
61726D6573
##D0B3D0BED180
657A69
70726F64757A696F6E65
6D6574616C
6772616E6469
486F6D65
6372656172
D180D0B0D0B1D0BED182D183
646963686F
D181D0BAD0BE
##D8AFD985D8A9
46616D696C6965
##D180D0B0D181
67656E6572616C65
31393239
48616E73
6D65726361746F
7574696C69736572
##D181D0B5D0B4
6F6274656E6572
737572746F7574
6469766964
D181D0BED181D182D0B0D0B2D0B5
747561
##A9E0B8B2
D0BAD0BED182D0BED180D0BED0BC
D0BDD0BED18FD0B1D180D18F
##E0B8A7E0B989
4C79
D984D984D8A5
##E0B8A3E0B8A3E0B8A1
D180D0BED0B2D0B0D0BDD0B8D18F
6A65747A74
63697461
D0B8D186D0B8
D8B9D982D8AF
696E7465726E6174696F6E616C6573
4572676562
477275707065
777964
63756572706F
##67727570
D186D0B5D0B2
64656C6567
7A657567
616CC3A96D
##D988D8ACD98AD987
7475747461766961
6265626572617061
##62696F72
##746F75
31393134
737570657269
##D8AAD8B1D8A7D8AA
##D181D182D0BED0BA
56656E
706F737361
546F6E
66616E64
726573706F6E736162696C69646164
D0B5D0BCD18BD185
##76656365
4469657365
##637A656E6961
##656761
706F776965
C3A97472616E67
6B6F6D6D74
4F6273
72756D
D181D180D0BED0BA
##C3A96D61
67656E73
6C6563
486F6E67
696E6469717565
76697361
70726F626CC3A86D65
##6D6967
646F6D61696E6573
D180D0B5D0B6
##69746564
657669746172
66C3BC6872656E
65736173
##C59B6C
53C3BC
686575726573
D182D0BDD0B5
D18AD18F
D09AD0BED0BCD0B8D182D0B5D182D0B0
696C6C65
7A756EC3A463687374
4353
C3BC62
5768697465
536D697468
##6F7267616E
7A6F737461C58261
##D0B5D0BBD0B5D0BC
7065746974
##D0B3D0BBD0B8
6F70C3A9726174696F6E
##616E6E69
6D656D696C69
##D986D989
4361726F6C
636172616374C3A9726973
##756E616E
##76656E6573
476C
4672656E6368
##C3A274656175
6B72C3B3
##7A656D
636F6D70726F6D
706C616E7465
64697665727365
##74657374
7574696C6973C3A9
667565727A6173
616C67756E73
D8A7D984D8B9D985
62616E646172
65696E66616368
##C5937572
D0BBD18CD0BDD0BED0B3D0BE
##D988D986D98A
##6C69736973
D09CD0B0D180
6669636174696F6E
616262
##D0BED185
436976
666169626C65
65787072657373
65726869656C74
7061657365
D8A7D8ACD8AAD985D8A7D8B9
D8A7D984D8AAD8B1D983
46656272756172
##3131
D0B6D0B0D0BD
657277
D8A7D984D8B5D984D8A9
637269737469
747461
677569746172
7175617369
6C6562656E
54616E
7472616E73666F726D61
##D0B8D182D0B5D0BBD0B8
##737A6572
##636F70
D182D180D0BE
616C6C6F77
##6972616E
536169736F6E
##D0B5D0B4D0B5D180
C3A9636F6C65
676F72
68616E7961
7265636C
6162696572
6D6F79656E6E65
##D0BFD0BED181
##4554
656E74666572
##C59B6D79
##D8A7D984D98AD981
##6369646173
616E676C616973
D180D0B0D0B1D0BED182D0B5
##C499C5BC
546162
D0B2D0B0D182
636F6D6D656E6365
43656C
##6573746572
70726F706F73C3A9
4E6575
69686E656E
6D696E6973746572
##6C6963686572
##D8A7D8ADD8B8
70726F6D6F766572
D8A7D984D8A7D8B3
##73697465
##D8A7D8AAD981
4469726563746F72
D986D8B4
##75726168
5773
43617361
426F75
64616465
D0BFD180D0BED0B2D0B5D0B4D0B5D0BDD0B8D18F
D187D0B5D0BCD0BFD0B8D0BED0BD
D0BFD0B5D181
D09FD0B5D182
617365677572
626167
D8B9D985D984D98AD8A7D8AA
##E0B8A5E0B887
##6B6564
64756173
666F75726E6972
4D6973
4675C39F
496E7374697475746F
63616E616C
##D0B8D0B1D0BED0BBD0B5D0B5
D0BFD180D0B5D0B7D0B8D0B4
##C3B66C6B6572
676566
706572666F726D
##72616C65
D0B2D0BED0BB
73616D70
6D656E6F72
61727175697465
4348
737461746973
##6B7572
637572736F
57696C6C
##C3A16C69736973
##6767696F
##E0B884E0B899
##D8B0D983D8B1
657373656E7469656C
446F6B
696E647573747269656C
53696368657268656974
##C3AD63696F
747465
7370726177
6A617264
D8B2D98AD8A7D8AFD8A9
D8A7D984D8AED8A7D985D8B3D8A9
##736B6965
4A6564
696E76656365
4A61636B
6361727269C3A87265
##C5827564
686F7261
##C3B376656E6573
6C79
416E67656C6573
D182D0B0D0BAD0B8D0B5
70617263
616C63756E65
D0B0D0B2D0B3D183D181D182D0B0
##D0B5D0BBD0B5D0BDD0B8D0B5
7065736F
D187D180D0B5D0B6D0B4D0B5D0BDD0B8D18F
496C73
5061727469646F
##E0B8ADE0B8A3E0B98C
6D6F746976
6B6563
D0B5D0BCD0B5
D0BDD0B0D183D187
74C3A9636E696361
736570617261
##756E6765
D8A3D8ABD986D8A7D8A1
696E666F726D617A696F6E69
74686F7365
6E6F736F
65737472617465
##696F6E616C65
D0B1D0BED0BBD18CD188D0B5
C3A97461626C697373656D656E74
D0BFD0BBD0BE
D0BAD0BBD183D0B1
##62657265
##6472
D988D986D8B3D8A8D8A9
5765726B
##D182D0B8D18F
6D616E67
##C3AD66696361
6C6F63616C69646164
617070726F636865
D0BFD0BED187
D0B3D0BBD0B0D188
676D696E
687964
64696564
D988D982D8AA
E0B897E0B8B2E0B887
7A6F6E6573
656E6F72
61636F6D
D09AD0BED0BD
##7461C582
6F6E6573
##7369616E
##C3A97269656C
D8A7D984D8A7D8B9
6EC3A9636573736169726573
##D0B5D0BDD0BDD0BED0B3D0BE
636F6E7365696C
4D6F6E73
##D0BCD0B5D180D0B8D0BA
486974
4D617572
##C3A47566
74C3A4
##6B6F6C6168
##D0B5D0BDD0BDD18BD0B9
D0B8D0BDD184D0BED180D0BCD0B0D186D0B8D18E
6575726F73
6C756F676F
6661766F7265
69636874
4368696361676F
73706F7274
736179
D8A7D984D8A8D8ADD8B1
##656775
70617269
##70696E67
D98AD8B3
6D6978
##D8B1D98AD8AF
##E0B897E0B8A3E0B887
4D50
31393137
65636F6EC3B36D69636F
62726F6E
56657274726167
6D70
D180D0B0D0B7D0BCD0B5D180
6461686572
696E67656E
707261746971756573
##6E696573
42696F
42657472696562
6479
696572756E67
706C616E73
D984D984D981
##D8B9D985D984
6375616E746F
##6F7479
##C5BCC485
47657363686963687465
D090D0B7
##C3AD70
69636F
536F686E
646564
6573667565727A6F73
67696F63
616C6573
646F6B
D8A7D984D8A7D982D8AAD8B5D8A7D8AFD98AD8A9
44657573
D183D0BCD0B0
##68C3A46E67
536573
##67656E6F6D6D656E
##E0B8ADE0B8A2E0B8B9E0B988
D0BED0B4D0BDD0BED0B9
646973706F7365
7574696C697A6172
##74656C6C6F
##D8B0D98A
666F72636572
##6161
416C6C656D61676E65
##C3A16669636F
696E666F726D6573
4F68
6361727461
5465727261
5465786173
C3B372696F
6566696361
31393238
##76657572
##6B726965
C3A9636F6E6F6D6971756573
##D181D0BAD183D18E
4350
D984D8B9D8A8
D182D0B0D182
D8A7D984D985D984D983
776F7274
##77616B
636F6E746578746F
62616C6C
##70697261
6E617A
C3A172696F
7061727469646F73
6E6F736F74726F73
636F736173
D9A5
6C756E676F
756E6974
7072C3A16374696361
6372697365
##76616E74
72616469
D0B4D0B0D182
696E74656C
##C5826174
6C69637A
4C6565
##75746C696368
D8A7D984D985D986D8B8D985D8A7D8AA
D984D984D8AC
63C3B474C3A9
6361706974616C65
42757267
626F6973
6E7473
6E617374C49970
6578706C6F69746174696F6E
486F6368
7468697264
6576656E746F
##7A7977
##7061C3B1
7075626C6973686564
426F62
D0BED181D182D180D0BED0B2
666F746F
726F67
69736572
42C3BC
656E6375656E7472616E
66616DC3AD6C6961
6E6573
D188D0B5D0BDD0B8D18F
66696E616E63696572
##D8A7D8A6D981
D0BCD18BD185
6C756761726573
656E7472616461
D0B3D180D0B5D181D181
D092D0B5D180
626567616E6E
6A756765
D187D0B5D182D18B
D8A7D984D8B1D8A6D98AD8B3D98AD8A9
646573656D7065
##6B79
62C3A27469
D188D0B8D180D0BED0BA
##D8BAD8B7
D182D0BED180D0B3D0BED0B2
D8A8D8AC
##D8A8D8A7D8AFD8A6
5265737461
7265636F67
D0B2D18BD188D0B5
D181D183D0BC
4B6162
6D616E6461746F
657874C3A9
4567
##6D616E6173
##666974
6D697474
D986D988D8B9
43756261
6775617264
62616D62
##EFBBBBD8AA
D180D0B5D182D18C
##D980D980D980
6962
E0B8A7E0B8B4
##616D6174
70726F706F7365
696E737469747574696F6E
6279C58261
##746C65
E0B980E0B884
61636162
4D616E75656C
##6F6C6F6779
70726F626C656D
616E6E6F6E6365
6CC3AD646572
##D8A7D8A6D98AD984
696F6E73
D981D8AAD8B1D8A9
##6E69636173
5768656E
506F7374
D0BFD180D0B8D187D0B8D0BD
##6F69
##D991D8A9
##C3B36E696361
4B756C747572
4575726F7065616E
6564756361
75637A
##D188D0B5D0B9
426162
70657274616D61
D0BBD0B0D0B3
6672616E7AC3B673
##D181D182D0B5D0B9
##74726F6C
D180D0B0D0B9D0BED0BDD0B5
##74657279
31393332
313330
5175616C
696E636C75646564
524D
##D0BCD0B5D182
7072696E63697065
454D
70726F7661
64656D6F637261
74616C6573
6D69676C696F72
706F6D6F63
6772617068
##61726F6E6F
D98AD8B1
666967757265
##D0BED0B2D0BE
##74657465
##C3B673756E67
6275696C64696E67
D0BED180D0B8
72656C617469766F
42656C6C
##C3A46765
7375727665
7561
##D8B3D983D8B1
526F6164
D8A3D983D8A8D8B1
##D181D0B8
696E6E796368
6C617574
D98AD8A4
666F737365
4672616EC3A76F
696872656D
##D8A7D8ACD8A9
D8B9D8AFD8A9
6C6F63616C65
D0BFD0BED180D18FD0B4
61746173
##6563656E
42616E67
726172
D0B4D0B5D0BDD18C
##6974756E67
6E6465
4177617264
5761686C
67726176
D8ADD982
617070617274656E
41756E717565
65696E73
42657269636874
65736375
4952
6D696C6C69
72C3A976
D8A7D984D985D8B1D983D8B2
7061726C65
##D0BED0B1D0BED0B4
76696F6C656E636961
426967
696E647573747269616C
4F6666696365
636F7374697475
7065736361
D181D0B2D0BED0B9
##7A696F6E616C69
6772616E6473
657870C3A97269656E6365
72657A
D985D984D98AD988D986
##6369616973
736568
##E0B8A1E0B8B2
D090D0BBD0B5D0BAD181
6D696F
6361726174746572
D8A7D984D8AED8A7D8B1D8AC
656E7473707265
616D656E746F
##626C6F73
636F6E636C7573696F6E
77616E64
45696E776F686E
##726F706F6C
D180D0B5D0BC
756F6D6F
757461
62756B616E
73707265
D8A7D984D8A3D981
D0BBD0B0D0B4D0B0
64C3A966656E7365
6576616C75
7363686E656C6C
D0BFD183D0BDD0BAD182D0B0
64657574736368656E
636F756E747279
##697374756E67
6C656973
##4F4C
##69746169726573
D0BFD0BED18DD182D0BED0BCD183
436F6D756E
##C3A974C3A973
636C696D6174
636F6E6F63
7363726974
46656C
##7461676E65
53656B6F6C6168
617474656E74696F6E
636F6D706C6578
D8A8D8BA
636F737461
627573696E657373
D8AAD984
656E657267C3AD61
6167656E
73657369C3B36E
##756D6173
##D0B8D0B9D181D0BAD0BED0B9
70726F676574746F
656666656374
476573656C6C736368616674
D988D8AAD8B4
4469737472696374
D0B5D0BDD182
67617265
D0BED182D0B4
656C6C6173
##D988D8AAD988
D0B2D0B7
D0BAD0BED0BBD0B8D187D0B5
##70756573746F
C3A3
4173C3AD
##74697373
##D0B0D180D0B4
63696E65
776179
##C3A86765
4C6F6E67
73746568656E
73766F6C
4D61C39F6E61686D656E
##617A696E65
646F76
##D0BBD0BED0BC
##63657261
##D8AAD98AD8ACD8A9
7269627565
43616D62
546F6B
72C3A97365727665
##756C6173
65717569706F73
65696E7A
766573
4575726F70656F
656E747374616E64
6D6F6E7461
4B756E64656E
##656E6473
726576656C
636F6C6C61626F726174696F6E
6578706F7274
666F6E646F
696D706C65
D0B8D181D182D0BED180
636F6C6F63
616C72656465646F72
D181D182D0B0D0BDD0B4
61747469
D984D981
##D8B9D988D8AF
636F757274
D188D0B8D185
D0BBD0B8D182
66616872
4F726967
67656E65
D0BBD18ED0B1
48756D616E6F73
6D69676C69
D0BED180D0B3D0B0D0BDD0B8D0B7D0B0D186D0B8D0B9
##C3A46E646572
726573657276
73C5826F77
4469726563
##D9A2
6372C3A96572
##746F72616C
4A696D
##5053
47696F76616E
706C6174
6D617263
##61737465
72656A6F
706974
##C3AD726974
##D8ACD8A7D8B1
E0B8AAE0B8A1
D091D0B5D0BB
72616B
696E74657265737365
73657276697A696F
64657363726974
##E0B8A3E0B8B2E0B88A
616E756E
D8A3D8B1
74C3AA7465
74656E646F
##626F6F6B
##D0B2D0B5D0B4
656E7365C3B1
D0B0D180D0BCD0B8
63726973
##666F72646572
686F6368
7065726D69746972
D0A1D0A1D0A1D0A0
C3BB
63726F697373616E6365
70617274696369
6162736F6C
D180D0B0D0B1D0BED182D0B0
##616E74656E
D182D0B0D180
62616E67
766F6C7465
7574656E
72617465
##756C61646F
7973
6A756D
66C3A163696C
69766F
434F4D
##6F727265
6A6574
72656E636F6E747265
4243
E0B980E0B897
##D0BBD0B0D181D18C
D182D0B5D0BBD0B5D0B9
D988D8A7D984D982
##726F736F
426C616E
70726F647563746F
66696E73
7469706F73
##D0A2
6974616C69656E
##6B6F64
72657072C3A973656E74616E74
D0BAD0BBD18ED187D0B5D0BD
726972
D8ACD8A7D986D8A8
D0B2D18BD181D0BED0BA
D8A7D984D8AED8B7
##637573
##7A7973
666F7264
D8A7D984D8B7D8A8D98A
D0BFD180D0B8D0BCD0B5D180
##6D6965
6A65646572
##D983D988D984
##D0BBD181D18F
74696572
636F72617A
D186D0B5D180
C3B66666656E74
D8A8D8A7D8B3D8AA
68617474656E
7265666C65
726F6E74
##616D6174616E
##61676E61
D0BFD180D0BED0B3D180D0B0D0BCD0BCD0B0
67656E7265
##E0B8B5E0B8A2E0B887
506F6D
##786963
##D8B2D8B9
6368696C6472656E
##67726174696F6E
##D0BDD0BED0B2D18C
##61636573
636F6E637572
##63616C
4672616E636573
696E6175677572
6461766F6E
726573707565737461
646973706F736963696F6E6573
D8A7D984D985D8ACD985D988
##676573616D74
6E6F726D6573
6C656C
6173706563746F73
726F7A737A6572
657374696D
##D0B1D183D180D0B3
53697475
73747269
6472616D61
##6B6972
616C6C6573
E0B983E0B88AE0B989
31393234
506C6179
6D65697374656E
4B69
416C61
##6B74C3B377
61C3A7C3B56573
D0B1D0BBD0B0
##6868
##756E646F
636F6D756E6963616369C3B36E
##D8A7D8A8D982D8A9
D18ED189D0B5D0B3D0BE
##D0BBD18FD180
766F79616765
57697468
##6974657465
50726F66657373
6AC3B376656E6573
D8ADD984
67617A
6C6962657274C3A9
6B6175
##6172C3A16E
D181D0BED0B4
D985D988D8AC
D0B8D0B3
4575726F70C3A46973636865
646966666572656E74
46756E64
##726967656E
676967
5061756C6F
6E61747572656C
##D8A7D982D8B9
6368696D
776567
D181D0BED0BDD0B0
416374
6F6674656E
##68616C74
7175617474726F
73C3BC64
73776F6A65
77696C61796168
##776967
61727469636C6573
##696368656E
5A656E74
##75616C6573
706F706F6C
D0B7D0B0D0BFD0B0D0B4
676573616D
##D183D182D181D182D0B2
6170726F78696D6164616D656E7465
##3235
62726173696C65
45696E65
D0BCD0BBD0BD
##D098
7474
D09FD0B5D180D0B2
##E0B8A7E0B887
##63756C6172
676C65
6D61696E74656E616E74
##69746966
6261696B
736565
5044
##6974746C65
436869
416D61
70C3B3C582
66697363616C
##D984D98AD8B2
D0B5D0BDD0B8D18E
D8AAD982D8AFD985
6E7461
D0BBD18ED0B4D0B5D0B9
727A6563
D180D0B5D0BDD0B8D18F
466162
74726174616D69656E746F
436F6465
##D988D98AD983
31393331
6578746572
D187D0B0D182D18C
D0BBD18ED187
##6F736F7068
##636F6E73
696465616C
706F64656D6F73
D0B3D0B0D0BD
70727A6574
D0B8D181D0BFD0BED0BBD18CD0B7D0BED0B2D0B0D0BDD0B8D18F
4C6569
666F746F73
##D8B1D981D982
D8A7D984D8B9D8B1D8A7D982
65666563746F
6573746162616E
##706C617A
D985D8A4D8AAD985D8B1
686572617573
65737369
##E0B981E0B8A5E0B8B0
D988D983D8B0D984D983
E28892
50616C61
68617961
7562696361646F
6D696C697461697265
64C3A966696E69
D8A7D984D8A3D8B3D8A7D8B3D98AD8A9
676961
##D988D8BA
73657074
756E6173
4B6C
526179
6163637565696C
D8A7D984D8B9D986
##68616E67
417468
6568656D616C
70656E736573
706C617A6F
D183D187D0B8
6374
##D8A8D98AD982
656E6665726D6564
D986D8B7D8A7D982
61736F6369
416C62756D
D0BBD18CD0BDD18BD0B5
##6F6372C3A1
6265736F6E64657273
696E6661747469
D0BCD0B5D0BDD0B5D0B5
766973696F6E
676567656EC3BC626572
##6F6C6168
6B6F6D706C65
6C74
6368656D
656666657473
636F766572
69646F
##D988D98AD8A7D8AA
D8A3D984D981
##D0BDD0BED0BBD0BED0B3
##616E677361616E
67696F76
##454D
76C3A972
616D6572696B616E
##6B6574696E67
##6F6E796368
7A6167
6E6F766F
73706563696573
72617961
##64696173
5363687765697A
6D61696C
D8A7D8AE
##D0B0D0BDD18B
D0BED187D0B5D0BDD18C
74697475
D181D0B1D0BED180
##D8A7D8B5D8B1
6A616469
D0BCD183D0B7D18B
D0BFD0BED0B4D0B4D0B5D180D0B6D0BAD183
##6963696F73
##63696E67
4368616D
##63686573746572
63686572636865
D186D0B8D0B0D0BBD18CD0BDD18BD185
61626F6761646F73
D099
7072C3A973656E6365
##6461706174
D8AAD8A4
6874
##64696F73
##554E
D988D8AAD988D981D98A
56657267
7175616973
666F63
76656E75
766572C3B66666656E746C696368
##6369656E6365
4E6F6E
D988D981D982
##6272616E
4164616D
67696E67
D0B8D0BCD0B5D0BDD0B8
D180D0B5D0BAD0B8
D182D0B0D0BC
##D187D0B5D181D0BAD0B8
4D49
D8A7D984D986D8A7D985D98AD8A9
777370C3B3C582
6D6168
66696D
446F6C
C3A96469
546974656C
D0BFD180D0BED0B8D181
##D0BBD0B8D0BD
6D6174C3A97269656C
64656C69
70726F707565737461
C3A172656173
D181D182D0B0D0BDD0B4D0B0D180D182
697669
D0BDD0BED0BCD183
636F6E637265
76656E676F6E6F
617574657572
576F686E
537461746F
6C696D697461
##E0B897E0B8B3
##686162
707265766973
61636874
D988D985D8A7
D0BDD183
D984D984D8B3D983D8A7D986
##6F6D616E
##D18FD189
D0BFD180D0BED186D0B5D181D181D0B0
766F6C756D65
D8A7D984D8B4D8B1D982
##D8A7D8A8D98AD8A9
7369676E616C
4D69747465
4F7267616E697A616369C3B36E
504D
7472696275
##D0BED180D0B5
##64696E
D0BCD0BED0BB
##C3A4747A65
616E6F74686572
E0B8ADE0B8A2E0B988E0B8B2E0B887
7265666572656E636961
454C
4D6573
68616D
74656C6C65
D0BBD0BED0B2
436875726368
6279C5826F
73746F636B
53796E
##6974C3A4
636F6E6E75
4C756674
D0BED0BFD180D0B5D0B4
73657875616C
##63C485
7369677565
D982D8B6
##D8B1D98AD982D8A9
##D8BAD98AD8B1D8A9
D8A7D984D8A3D8B3D8B1
676F6C61
4269656E
526F6D65
D0BFD18B
D0B7D0B0D182D0B5D0BC
##E0B8B4E0B988E0B887
5374616174656E
52657374617572
4C656F6E
6EC3B373
64C3A97369676E
536972
61726265
D181D0B5D0B2D0B5D180
46616D696C69656E
736F7572636573
##6F6D65746572
##D98AD985D98A
736F6C6C74656E
4C6967
D0BED180D0B3D0B0D0BDD0BED0B2
697A7A61
##D988D8A8D8A9
##6E6F766174696F6E
6A7565676F73
D0BED186D0B5D0BD
546F776E
6E616D61
616DC3A972696361696E
696E7465727072
C3A976C3A96E
6269626C696F
##766173
476972
556B7261
##7765726B
727A65
6F6E6F7265
##D181D182D180D0B5
##6D6174696F6E
706172656E7473
##74616E7465
##63686961
466F72736368756E67
D187D0B5D180D0BA
31393231
##6E6173
6F6E69
456E74736368656964
D0B0D18F
##D8AAD98AD8A7D8ACD8A7D8AA
74657272656E6F
686F73706974616C
D0B5D0BBD0B8
31393232
D988D8A7D8ADD8AF
4D696368656C
706F6CC3AD7469636F73
##61626174616E
##657A
##6D656E7469
6F7269656E74
D187D0B8D181D0BBD0BE
D181D0B2D0BED0B5D0BC
##6167656D
##C3A17469636F73
4D65646961
##C58473747761
D0BCD0BED0B4
6D757369717565
437261
726F6475
416E6E61
D0BDD0B0D185D0BED0B4D0B8D182D181D18F
##D8ADD8A8
72657072C3A973656E74616E7473
D0BDD18BD0BDD0B5
##D183D189D0B5D181D182D0B2
C3A86D65
64C3A97465726D696E
4D656E74
D0BFD0BED0BBD0BD
##D8B5D981
6461746F
D0BBD18CD0BDD0BED0B9
7A656E
656967656E656E
##D8A7D8AAD987D8A7
##696C6CC3A9
##61727461
6865726D
##626F617264
##74616A
706C616E7461
70726F74C3A9
##75737365
456C6563
73756976616E74
##7A69C487
D0BED0BAD180D183D0B3
657869737469
69736C61
##616C697A6172
7072657374
616374696F6E73
D0BFD180D0BED0B1D0BBD0B5D0BCD18B
526F67
D0B0D180D185
##D98AD8A7D987
##D991D98E
##D8ACD8AF
##796564
67656772C3BC6E
727574
D0B6D0B5D0BDD0B8D18F
##756AC485
D0B4D0BED0BBD0B6D0B5D0BD
##636874656E
64657363656E64
D0BFD0BED0B4D0B4D0B5D180D0B6D0BAD0B8
##3830
##63696F6E616973
D8A7D984D8AAD8B9D984D98AD985
6469736375
696E746572657373
313430
##646F6279
70726F66657373696F6E616C
446F706F
D09ED0BD
##E0B897E0B898
##7A7962
##7A796D61
706C6173
D8A7D984D8A3D985D8B1D98AD983D98AD8A9
4665646572616C
31393236
##6669717565
687474
D0BFD180D0BED0B4D0BED0BBD0B6
686974
62726F73
##D8A7D8B9D98A
##6172696B6174
##7374616C
31393235
D8A7D984D8AFD8B9D985
D982D8AFD8B1
D0BFD0BED0BCD0BED189D18C
476562696574
506572616E
##3135
D8A3D8B9D8B6D8A7D8A1
##D180D0B0D0B6
72C3A9616C
70726573656E746172
7374656C6C
##D0BED0BBD18CD188
D184D0B5D0B2D180D0B0D0BBD18F
446179
##5553
727369
636F6D6D756E6175
646166C3BC72
6D6F6E7468
707265736964
##6F636B6579
6F73C3B362
5A61686C
##76C3B66C6B6572
##D986D8AAD98AD986
##68C3B56573
D984D984D982
##6164C3A96D
526567696F6E616C
70726F706961
##7669C3B3
726573706F6E7361626C6573
##7A657277
D0BDD0B5D0BAD0BED182D0BED180D18BD0B5
646F7479
##D985D983D8A7D986
73657276697A69
736F776F686C
D8ACD986D988D8A8
70617373C3A9
7065726D6574747265
##656A
616E676573
C3BC73
6D656D62726F
676C6F62616C65
D186D0B5D0BDD182D180D0B0
6C616E6775
##726173747275
476F6E
E0B981E0B8ABE0B988E0B887
4C6F74
4D696E697374C3A87265
D0BFD180D0B5D0B4D181D182D0B0D0B2D0B8D182D0B5D0BBD18C
C5BB
436F727465
7065C582
##7461646F72
6B65696E
##D986D8AFD98A
##E0B8ADE0B894
656D706C656F
436975646164
706572666F726D616E6365
D8A7D984D8A7D8AAD981D8A7D982D98AD8A9
74656C65666F6E
##C3A4C39F6967
7370C3A96369616C65
D189D0B8D185
##61636873656E
436F6E66
D0B0D18E
D0BDD0B5D180
4E657773
##D0BED0B6D0B4D0B5D0BDD0B8D18F
##75676E6F
31393237
4B6C69
##796174
6B6F70
6368617267C3A9
D187D0B5D0BDD0B8D18F
##657269616C
D8A7D984D8ACD984
D0B4D0B0D0B6D0B5
7769C4996B73
5061727479
##6C616E6473
77686174
##6265776572
##D8A7D8A6D8B1D8A9
##4349
##74747574746F
D097D0B0D0BA
646F63756D656E746F73
636F6D706C65746F
D985D8B9D984
##C3A16E69636F
4E6172
##E0B980E0B897E0B8A8
56656E657A
6F6674
##D988D981D8B1
6261776168
##3630
D8A7D984D987D98A
4D696C6C696F6E656E
D985D985D8ABD984
6B696572
##72756368
D8AFD98A
7072616379
D187D0B5D0BDD0B8D18E
6163636F6D70
##74696673
585649
D8A8D982
D0B0D186D0B8D0B8
6175666772756E64
416DC3A97269717565
##7A69C582
72636F
636974746164
##D18FD0B1D180D0B5
D18CD0BDD0BED0B3D0BE
426564657574
736B6F
D8A7D984D985D8ADD983D985D8A9
D182D18BD181D18F
616E69736D65
67756E
70727A656369
64656DC3A173
616C6C657264696E6773
4B6562
676568C3B67274
554B
6D6F75
6D656A6F726573
##D8A8D8AFD8A3
##696D69736D6F
616C6D61
D180D0BED181
657370C3A9
##626F7572
##C3A16E64
7A77656974656E
##6F6461
50756E
##6A617A
D8AFD8A7D8AED984
617A696F6E69
67657374656C6C74
6D6F73747261
496E64757374726965
##C3AD6461
##D8B3D8B1D8A7D8A6D98AD984
##C584637A79
##D8AAD8B4
736F70726174747574746F
476F7665726E
##756D73
6E6F73747261
D8A7D984D8ABD8A7D985D986D8A9
74657572
7A696D
D0B6D0B5D0BB
696E64C3A970656E64
636F6E646974696F6E
D0B2D18F
6369746F
656C656363696F6E6573
D0B2D0BDD183D182
D8AAD8A8
##616C696B
676F6265726E
D8A7D8B3D985
64696167
D8A8D8A7D8B1
##696D656E
536F6E67
636C616972
676572616C
70726F7665
D0B2D0BDD0BED0B2D18C
##656C6173
44657369676E
D0B6D0B4D0B5D0BDD0B8D18F
##D189D191
7061736F
756C74696D61
##6965647A
416672696361
##726F6974
4C6177
70726F766F63
D8A7D984D986D8B3D8A7D8A1
D8A8D8A7D984D986D8B3D8A8D8A9
5365696E65
70726564
313130
6D6F6E6469616C
7769656B75
##656E656E
6C6C6567C3B3
4545
##6B7570
6F637572
##6E6F7661
D0BFD180D0B0D0B2D0BBD0B5D0BD
6F7574726F
70726F776164
D98AD984
73636F6E
##696E7961
##6F6E746F
6D696C696F6E69
##6C6567656E
736F7574656E
D8A5D986D8B4D8A7D8A1
D182D0B5D185D0BDD0BED0BBD0BED0B3
E0B882E0B989E0B8B2E0B89E
6572736368
D181D182D0BED180D0BED0BD
##72616765
706172666F6973
617373697374616E6365
626F6E6E65
##D8B1D981D8A9
6B616D70756E67
D8A7D984D8AAD8B1
6265736172
637A657277
70C3A167696E61
56657274
D981D8B1D98AD982
##D8B1D8A7D8B6D98A
##D987D8A7D98AD8A9
49726171
4B6F72
D181D0BED0B2D0BCD0B5D181D182
##7475616C697A
D0B2D0B8D182D0B5
D988D8AAD8B1
7072696E636970617578
D0BED0B1D0BED180
D981D982D8B7
##76696577
636F6D6D756E61757461697265
##D18CD18F
44696575
D180D0BED0BA
6D6F6465
##616472
72656C6163696F6E6573
636F6D6D65726369616C
D0BED0BFD18BD182
747261696E
4D61696E
6D6961737461
##D8A8D987
62697361
##71756961
44696E
486F74656C73
D0B2D0BED0BFD180D0BED181D18B
6465746572
74617069
6B656C756172
706F7773
D0BDD0B0D0B8D0B1D0BED0BBD0B5D0B5
6961697475
##6C616365
73746F73
6573706563696573
756E746572736368696564
D186D0B0
D09FD180
##696C6961
##D8B1D8A8D8B9D8A9
77C3BC726465
##636CC3A9
656E766F
6575726F70C3A469736368656E
76657264616465
D8A7D984D8ADD8B1D8A8
6D6575
436C65
##7573747261
6165726F70
31393233
6E6174696F6E616C6573
76756C
6272657665
##656461
736375
5061C3AD73
7075626C696361646F
73656E686F72
6E61686D
D0B8D181D181D0BBD0B5D0B4D0BED0B2
##E0B899E0B8B5E0B989
506F6CC3AD
C3AE6C65
7072696D65726F
##D8A8D98AD8B1
50616369
67726163696173
74796368
706F7072
C59B77696174
D0B5D180D0B0
##D0BAD0B8D185
696E7465726E6574
706F6973
##697374756E67656E
D0B0D0BDD0B0D0BBD0B8D0B7
756D69
D0A1D0B2
5A7573616D6D656E617262656974
686970
73706573736F
E0B980E0B888E0B989E0B8B2
D18ED189D0B8D0BCD0B8
D18ED189D0B8D0B5D181D18F
##D0BFD180D0B8D18F
##4253
D8B1D982D985
70617361646F
6D696E75746573
C3A96C6576C3A9
726F647A696E
6E65737465
4C616D
D0BBD183D187
5661
7068696C
D0BAD180D183D0BF
65696E7A656C
617274C3AD63756C6F73
##696D6F73
##706172746D656E74
##67696361
4575726F706575
63616D7065
646972
4D617274
##706F737461
7369C3A86765
D181D182D0B2D0B5D0BDD0BDD18BD185
##6F77C485
66756E64616D656E74616C
63726561
##6875
6C696E69
6669656C64
##6574746265776572
##696265
726D
##72696674656E
616E646572656D
##C3B36E69636F
##74656C6573
##65737472
##697461626C65
50727A79
73686F7274
4C7564
756E6765
4672616765
##696B6F
4162736368
41757374726961
D0BFD180D0B8D0B7D0BD
##D183D180D0B0
707269736573
6C657661
##766976
##D8ABD98AD982D8A9
D181D18FD182
41726162
66726565
646F75626C65
667573
D0BBD0BED0B3
D181D0BED182D180D183D0B4D0BDD0B8D0BAD0BED0B2
##D0B0D0BBD18CD0BDD0BE
6576657279
##D8AED8A9
##6373
##E0B8B2E0B8A8
6D656872657265
76657269
6EC3AD76656C
7068797369
##656E74656E
##76617265
5441
4C6172
66696C6C65
D8A7D984D982D8AF
66726F6E7465
446976697369C3B36E
D180D0BC
##6D6972
45696E7361747A
706C617461
D181D0BED0B4D0B5D180D0B6
##63C3AD61
##696E67756E67656E
42656C696175
##D181D182D0B5
4672616EC3A76F6973
56697267696E
##6F7073
##697A61646F
72656C6163696F6E61646F73
##D0BDD18C
76657277
63726563696D69656E746F
##D0BDD0B8D18F
##D0B5D181D182D0B8
616C756D
617070617261
D18DD0BD
616C6C656D616E64
48616D62
##6C6970
D0BFD0BED0BBD183D187D0B8D0BB
467269656472696368
636F6465
6164656C
616C74757261
63657265
##69676E6573
6E617269
##656E74756B
##D8AAD8A7D8A6D8AC
64C3A96D6F637261
##6F6A
446570617274616D656E746F
6F7572
636F6E74696E756172
726570726573656E74616E746573
416E66616E67
77737A7973746B6965
416E77656E64756E67
##6172616E67
##6C656B
526F6C6C65
7765656B
667565727A61
75C3A9
##3133
636F6D6D6F6E
393030
##D983D8A7D984
73706F73C3B362
##D8B6D8A9
476F7474
7469746F6C6F
64C3A9626174
757262616E
5374616174
##756E6473
##61727465
456E64
696E766173
6D656D696C696B69
D181D0BED181D182D0B0D0B2D0BBD18F
74656C6C
657370657261
506572616E636973
D981D988D982
##D189D0B0D0B4
636F6E7469656E65
D0BED0B4D0BDD0B8D0BC
D8A7D984D8AED8AFD985D8A7D8AA
74776F72
##637469
##D98AD8B2D8A7D986D98AD8A9
6D61736968
726179
D181D182D0B2D0B8D0B5
##6F737472
696673
D182D0B0D0BAD0B8D0BC
706F73746572696F726D656E7465
D0BCD0B5D187
656B73
67726162
6573736F
##D0BED182D0B0
7369746573
61736F
52657075626C6963
##6B77
4A65737573
D8A7D984D985D982D8B1D8B1
636C6F
61626974616E7469
536175
6F7065726163696F6E6573
616D696E65
##7573616C
706F6272657A61
70C3B3C5BA
D988D8A7D984D8AE
70756572
##C3A47573
##637269706369C3B36E
##D180D0B5D0BD
##6265726F
D0BCD0B0D0BB
4B6F70
D0BFD180D0BED0B2D0BED0B4
65737072
4A616371756573
50726F64756B7465
73656E63696C
D0B7D0BDD0B0D187D0B5D0BDD0B8D0B5
D8AAD8B1D983
D8AAD8A7D8B1D98AD8AE
41756368
72697371756573
D8A7D984D8AFD98AD985D982D8B1D8A7D8B7
##D8AAD8AED8A8
506C7573
6E6167
D0BFD0BED0B4D0B3D0BED182D0BED0B2D0BAD0B8
6575726F706569
##7A617461
636F6D6D65726369616C65
666F6C67656E64656E
53636875747A
6176657265
74726962756E616C
D984D8B3
D0BAD183D180
47696C
77726F
464D
757262
D8A7D984D8AAD8A3
7074
##D0BED181D182
4B61726C
E0B882E0B8B6E0B989E0B899
62657273616D61
##69C487
696E73706972
47696F76616E6E69
4B75616C61
##6872656E
5A6F
D0B2D0BED0B7D0BCD0BED0B6D0BDD0BED181D182D0B8
D0BCD0B5D181D18F
##D985D98AD98AD8B2
6D6F64C3A86C65
696E6963696174697661
6865757265
D0BDD0B5D0B4
##75736961
C3A97461626C6972
D182D0BED187
656E65
76657A6573
##69657274656E
486F6E
D0BAD0BBD0B0
666961
313734
75736172
696E636C757965
5050
7A6E616A64756A65
C2AE
D185D0BED182D0B5D0BB
456E746572
646573737573
6573637269746F
6C6F6973
68696E61
426564657574756E67
##74696461
72C3A96775
D988D8B3D98A
##6D61696E
##D0BBD0B5D0BAD181
D0BDD0BED0B2D18BD185
##C59B6E6965
657874C3A97269657572
6D617265
6A65756E65
E0B8A2E0B8B1E0B887
##D0B8D181D0B8
74C3AA6D
6D74
646973736F
496E676C
##C3B672706572
D8A7D984D985D986D8A7D8B7D982
6D65747465
##D8B4D8A7D8B1D983
6361726163746572C3AD737469636173
4B656E6E
636F6C6F
##6F726965
##726163
48657273
686973746F7279
D8A7D984D8A8D8B9
6465726E69657273
676975676E6F
6B6F6E73
53616E746961676F
706C7574
426962
6D6F766564
617574686F72
5254
D182D180D0B0D0BDD181D0BFD0BED180D182
6265726B
77656E74
76C3A9686963
##696563
D0B0D182D0B0
74656C6576697369C3B36E
746F726E656F
##7A696568
646F70
656E746665726E74
737465737361
D985D8ADD8AF
##67656D
D982D8A7D984
D983D8A8D98AD8B1D8A9
556D77656C74
646962
##D988D987
##D8ACD8A7D8B2
436F6C6F6D626961
64C3A963696465
D988D8B8
4372757A
70756C61
677261766573
696E766F6C
636F6E7374616E7465
##E0B980E0B882E0B8B2
6C656C616B69
D0B3D0BED181D183D0B4D0B0D180D181D182D0B2D0BE
7073796368
##7564656D
D0B2D0BBD0B5D0BD
657370C3A8636573
676175
##72696573
##616D7066
D181D0B8D181D182D0B5D0BCD0B0
6D656E74616C
D181D0BED181D182D0B0D0B2D0BBD18FD0B5D182
31393030
31393130
66C3BC687274
D0B2D182D0BED180D0BED0B9
##C3AB6C
##C3AD737469636F
496E666F726D6174696F6E
727572616C
##6F6475
76656C6F
##6D656E746169726573
657863657074696F6E
##6772617068
##7477C3B372
72656E647265
6765676562656E
616D6F6E67
D8A7D984D98AD985D986
746F7269
6C6965C39F
6974616C69616E61
313637
4176656E
7374616174
D181D0B5D0B7
4D6F746F72
496E6469616E
##D0B5D0BBD0B5D0BDD0B8D18F
5261756D
6E756D6572
536861
D8A7D984D8A3D8B1D8B6
696E636C7573
46657374
727570
646972656B74
C3A172
67696C74
43616D70656F6E61746F
6E617A696F6E616C65
##67616265
D8A7D984D8A8D8B4D8B1D98AD8A9
##72696C65
6E69657A
726567617264
48C3B66865
##766574
556E697469
D18BD0BCD0B8
##6E697474
##6174686572
556E7465727374C3BC747A
D0BDD0BED0B2D0B0
657870657269656E
##D8B5D984D8A9
6368616E73
E0B888E0B8B6E0B887
617661
706C696B
##D0B0D0BDD0BE
536F667477617265
##637A656E6965
6DC3AA6D6573
6C6F67726172
726567696F6E65
6D69656A73636F776F
D0B7D0B0D0BB
646172C3BC626572
6173736F636961
##C3BC6E7374
##D0B1D0BED0BC
7479706573
617267656E
7465726D6573
707562626C6963
D0B7D0B0D18FD0B2
##696E6F6973
D8AAD8B9D8AF
4A6F72
##6C617562
66696C6D73
636F727465
D8A7D984D985D988D8AC
737461747574
##D8A7D8B7D8B9D8A9
D98AD8ACD8A8
4F6E746172696F
##E0B8B4E0B89A
##79737465
##6368616674656E
526567656C
##616D656E746F73
636F6E746F
476567656E
637A61736965
726169656E74
666F6E6374696F6E73
666F726D61746F
##696573656E
756666696369
6163717561
##6E65726F
7072696E636970616C656D656E74
##74616B616E
4CC3A46E6465726E
##656E696F
##7373
D984D8A8
6E656D656E74
67696F726E69
D0BDD0B0D187D0B0D0BB
46616C
646966C3AD63696C
E0B881E0B8A3E0B8B0
74696E6861
##C3AD6669636F73
##6F6473
656E636F7572616765
666176657572
636F6D657263696F
##D8A7D988D984
##6C6F76
6C616D61
7261706964656D656E74
##E0B8ABE0B8A7
D8A7D984D985D8A4D8AAD985D8B1
D0BCD0B0D180
D0BAD0BDD0B8
61637475656C
66616973616E74
D180D0B5D0B6D0B4
637269736973
6D6F76696D69656E746F
746973
##D8AAD8B1D983D8A9
31393132
6F747469
73616C6168
6578706C6F72
313235
##D183D180D0BD
756C74
72656163
D8A7D984D98AD988D985
D0B8D0BCD0B8
##617573
73686970
70657269C3B364
7069C499
C3B66E
##696C616E64
##E0B8B4E0B8A1
D986D8A7D8AFD98A
D988D8A5D986
##74696369
736F696E73
##3138
636172656572
7265616C697A61646F
##61686168
4752
426576C3B66C6B6572
6F706F7274756E69646164
##6669C3A9
70726F6772C3A873
D183D0B2
73637269
##746976656D656E74
D8A7D984D985D986D8B8D985D8A9
61646D696E69737472616369C3B36E
D8A7D984D986D988D988D98AD8A9
636F6E6563
496E73746974757465
##D8B9D984D985
##676568
D988D8A5D8B0
##72616E6365
7369747561646F
##D98AD988D986
##D0BBD0B8D18F
564949
5468657365
D8A7D984D8B9D985D8B1
626967
D8B9D8A8D8B1
##756469616E
706F637AC485
D0B1D0B8D180D0B0
536F6369657479
C3A96C656374696F6E73
4D696E6973746572696F
D09DD0B5
756C74696D6F
4F52
##6A617961
##7572657A7A61
D0BED0BBD0B8
D8A7D984D98AD988D986
##6564C5827567
7669656C656E
74C3A9726D696E6F
6465736170
656D6572
D181D182D0B0D182D18CD0B5
##D183D188
E280A6
D0BED182D0BDD0BED181D0B8D182D0B5D0BBD18CD0BDD0BE
7061726C616D
646973707574
##D0B8D0BBD0B8D181D18C
4C6F7665
313537
##62696C64756E67
D8AFD8B9D985
##E0B988E0B8B2E0B8A2
7065726D657474616E74
74616E646973
7175616C6974C3A0
##D8AFD8A7D8AA
6F7267616E69736D6F73
67C3A96EC3A972616C656D656E74
636F6E73756D6F
6EC3A4
D180D0B0D0B7D0B2D0B8D182D0B8D0B5
D181D182D0B8D0B3
696B
D0BED0B1D189D0B5D181D182D0B2D0B0
6F65737465
61717569
696D70726F
D8A5D982D984D98A
70726976C3A9
D0BCD0B5D0BDD0B8
416C62
73706F74
##6964616D656E7465
436F73
6D616767696F7265
726F7A706F63
D8A7D984D8ACD8AFD98AD8AFD8A9
##7769617461
636F75727365
66696E6573
436F756E63696C
##D988D986D8A9
6368616E6765
D8ADD8B2D98AD8B1D8A7D986
D18FD0BC
##D0B3D0B5
6E657773
72616974
##72656E6365
4166726963
##6D656E6F
D0BAD0BBD0B8
65736368C3A4
D0B1D0BED0BBD18CD188D0B8D0BD
456E74736368656964756E67
313639
6F626C69
686569
##6F706F6C
D0BAD183D0BBD18CD182D183D180
##77616E6961
5A69
7265666F726D61
D0B1D0B5D180D0B5
D8ACD8A7D985D8B9D8A9
##7574746572
6DC3A974
56656E657A75656C61
D0BAD0BED0B2
##6E69737365
436F72706F72
##6F6D6965
696D6167656E
##434F
D0B3D180D0B0D0BDD0B8
D0B1D0BED180D18CD0B1D0B5
##C582756769
70617274696369706172
6469C3A1
74656D706174
D988D8AAD8AD
E0B980E0B89B
D092D0B5D0BBD0B8D0BA
62696C616E
##C582C499
50726F7A656E74
D183D180D181
7475646F
636F756C65
##686F75
313733
##656479
D8ACD8B1
576F72
66616872656E
D98AD984D98A
4D616B
7265616368
##D8B9D988D8A8
##D98AD8B1D8A7D8AA
##6D756C61
6D65696F
##D8B2D984
7465787465
7769C49963656A
6F7264696E
##E0B8A1E0B8B5
D8A7D984D985D8ADD984D98AD8A9
62617461
##66C3A9
7669676F72
64C3A9636C
##6C69776F
##66C3BC6872756E67
##72656A61
C3A974656E64
436F6D6D756E
##D8A7D987D8AFD8A9
64697365C3B16F
4E6965646572
666163746F
757361
D184D183D0BD
##E0B983E0B888
##74656361
##4E41
##3136
52C3BC636B
6E75636CC3A9
D8A7D984D8B4D98A
D8B9D8A8
##C383
D0BBD18CD0BDD0BE
6C696361
D8A7D984D989
##D8AAD8A8D8B9
##696368746574
D0BED180D183D0B6D0B8D18F
616A6F
##D984D98AD8A7
696E73706563
##61746F697265
##D8B9D8A7D98AD8A9
6F6E6365
496C6C
D18BD0B2D0B0D0B5D182
##D0BFD0BED0BB
##D0BCD0BED182D180D18F
D182D0BED0B9
##4341
48756E67
706F70756C61C3A7C3A36F
D182D0BED182
63656E74726F73
616666656374
##C584736B6965676F
##6D6173756B
##74697374
736562656C756D
D0BDD0B5D0BDD0B8D18F
7A6E6163
##676566C3BC687274
616EC3A16C69736973
D189D0B8D0BC
476567
##656374696F6E
D0BBD18FD0B5
D8A7D984D8A2D986
##E0B988E0B8A7E0B899
49726C616E6461
56657266C3BC
73656C65706173
4672616E6B7265696368
##D18CD0B5D180
7265636F6E73747275
##C3AA636865
##5552
6F627374616E7465
70726F646F74746F
706F736962696C69646164
696E636C7579656E646F
62657A656963686E6574
##616D62696C
696E697469616C
##696F6E79
D0B5D0BDD181
D18BD0BD
6D616767696F
4E4F
67616D6573
D8A7D984D8A5D8B9D984
##65736172
D185D0BED0B7D18FD0B9
##3234
5075626C6963
D8A7D984D985D8B7
4E616D65
50727A65
62756168
536567756E6461
736F6C61
737570C3A97269657572
726F6C65
496E697469
6D696C697461726573
D0B8D0B4
6D696C68C3B56573
676173746F73
##68C3B672
73757266616365
50726F64756B74696F6E
##61686C656E
696E737472756D656E746F73
636F6E7669727469C3B3
##7061646B75
D984D983D984
##C393
6F7477
61676769
D0BDD0B0D186D0B8D0BED0BDD0B0D0BBD18CD0BDD18BD185
53686F77
5275736961
72756F6C6F
##6B61C584
636F6E747261746F
546174
D0B8D0BED0BD
746F646176C3AD61
##D18FD182D181D18F
D8AAD8ADD8AFD98AD8AF
62726974616E6E69
6DC3A87265
D180D0B0D0B9D0BED0BD
646963656D627265
D985D988D8B3
66756E63696F6E6573
696D70616374
##69736C61
C3A961
667565727465
##D8B1D98AD981
##697373616E74
D09FD0BED0B4
7372
D181D181D0BE
616E69
6578656D706C6F
68696E617573
D984D984D986
4C6976
6672616973
70656E7365
76697365
##494D
##D988D8B9D8A9
##6F6C6964
##E0B884E0B8A7E0B8B2E0B8A1
##D187D0B5D181D0BAD0BED0B3D0BE
D181D0BED186D0B8D0B0D0BBD18CD0BDD0BE
##D8A7D8ADD98AD8A9
D0B0D0B2D0B8
74726F6E
5665726B656872
61646D696E697374726174697665
##6172696F7573
73656D656E74
D0B0D0BBD0BED0B3
636F6E73697374
##D8A7D8A6D984D8A9
313539
4A61687268756E646572
6C6865
D184D0BED0BD
7061726F6C65
636F6E6461646F
646563696465
686F6A65
D0B4D180D183D0B3D0B8D0BCD0B8
6D617465
696E64C3AD67656E
D0BAD0BED0BCD0B8D182D0B5D182D0B0
4D69656D62
66616D696C696172
696E746974756C
4544
737472757474757261
D181D0BED0B7D0B4D0B0D0BDD0B8D18F
726567696F6E616C6573
6176616E74616765
##D981D8A7D8A1
6F6369
65696E6D616C
##656C6C69
##75747A74
D8A7D984D982D8AFD985
4C6F67
656E6672
##6F7661
7373616E74
616E6E6F756E
707265737570756573746F
636F6E746163746F
5369747A
D981D8B1D986D8B3
D09DD0B8D0BA
70656E79
6469737365
74616C69
##62696C69
7369637572657A7A61
77C58261
4A6573C3BA73
6E696E67756E61
4D697373696F6E
##C3BA61
##6F7272
4942
6E6F726D616C65
D0A1D0B0D0BD
72696D69
D8A5D8B0
D0BFD180D0B8D0BDD18FD182D18C
616E74617261
63686F6978
##D988D8A7D8A9
696E74657276656E74696F6E
4974616C6965
7665727369
6C697665
D985D8B1D8A9
556E7465727374C3BC747A756E67
46726F6D
7369657465
D988D8A8D984D8BA
636C69656E746573
D09FD0BED0BB
##637A6E6965
D0BBD0B8D0B2
##6B756E67
D98AD8AC
6465726976
46616368
D0B3D180D0B0D184
D18DD0BBD0B5D0BC
42726F776E
7A7573C3A4747A
636172616374
617267656E74
636F6E64656E
61676F7261
##617475726573
##7269676874
6C6C65766172
646970
647572C3A965
416E6E65
646973706F6E6962696C69
696E697A696F
D185D0BED180
##3137
616E61
##6965636B
##69657578
72617265
64C3A970
##79637A6E65
##616C6C6173
696E666C75656E6365
64697370
68C3B474656C
##D984D8A7D981
7669766F
##656E7A65
313634
537469
##D8B5D988D8B5
4EC3A4
737369
##7475746F
C3A176656C
64C3A9636F75766572
##6B736F6E
##696E676F
746F6D61
75737461
7375627374
##616C6F677565
4865696E
74C3A973
D0BBD0BED0B6D0B5D0BDD0B8D18F
62657267
D988D98AD985
616C747261
D0BAD0BED0BCD0BFD0BBD0B5D0BAD181
46696C6970
7265616C6D656E7465
##7A7A6F
D8B3D986D988D8A7D8AA
436972
506F72746F
D0B8D0B7D0BCD0B5D0BDD0B5D0BDD0B8D18F
D8B3D98AD985D8A7
##D983D986D988D984D988D8ACD98AD8A7
D0B5D181D181
D98AD982D8AFD8B1
##61747265
D8A3D984D985
4A657374
##C3A463686C696368
##7A657373
72C3A8676C6573
66697A
71756164726F
4E756D
6C6E
6D616E74656E6572
##676F6E
7061747269
7469717565
7665726F
7573616765
63616D696E6F
73657474656D627265
70726573656E636961
7465636E6F6C6F67C3AD61
746563686E
D0BED0B1D0BB
636F6E736567756972
D8AFD988
706F736974697665
48616E64656C
6D756573747261
56657266C3BC67756E67
766F7465
##E0B8ABE0B88D
##696774656E
4C656E
##707065
636F6D616E64
626573736572
D986D98A
6C6F77
657870616E73
6C696567656E
76616C6F726573
707565626C6F73
746C69
##D8AAD985D8A7D985
D8A7D984D8ADD8B1
D189D0B5D0B5
##D182D0B8D0B9
D182D0B5D180D180D0B8D182D0BED180
4361727461
726170696465
D0B2D0B8D0BD
457261
##6B74696F6E
656E7175616E746F
73656B6F6C6168
D0BDD0B8D0BA
##D181D182D18B
##6E696379
D0B4D0B5D0BF
##696E6E656E
##3134
D181D182D180D0BED0B8D182D0B5D0BBD18C
7075626C69C3A9
6D696E697374726F
617564696F
65787065727473
7072696E6369706573
##6D6F6E64
67656E657261
D988D8A7D984D8A7D8ACD8AAD985D8A7D8B9
636C69656E74
D0BED0BFD0B5D180
D0B7D183
##697374C3A16E
4B726973
62656C6C65
636F6E74656E75
##6E61696F
636F6E66726F6E
D0BAD182D0BE
77656E69676572
D0BFD180D0B8D0BDD0B8D0BC
6269616E
##D985D8B1D8A3D8A9
6C696E6561
65737461626C65636572
49676C65736961
616B746976
##6F726564
65737461626C6973686564
D0A1D0B0
##696F6E61
50617A
##D0B8D182D183D182
D8ADD983D988D985D8A9
##6374757261
6F736F62
616C6C67656D65
726E61
617975646172
D8A7D984D988D8B3D8B7
##E0B881E0B8B1E0B89A
##E0B8B7E0B8ADE0B899
4C616B65
C3846E
636F6E636564
##77617973
##D0BAD0B0D186D0B8D0B8
4A616E6569726F
616365
##696E657365
##6974616369C3B36E
67656E6175
D0B7D0B0D0B2D0B8D181D0B8D0BCD0BE
D988D984D985
637573
746F74616C6D656E7465
737566
6465726E69C3A8726573
6469726974746F
416D6572696B61
756C65
64696173
6E656564
##66656C
##696C6967656E
476577
6970
636861726163746572
D8A7D984D8A3D8B3D984D8ADD8A9
##D187D18C
4974616C69
706F6C6974696B
457374C3A1
6469676974616C
##736365
66756E67
4CC3A9
7265616C69646164
657465
436F6C756D
##70746F
D0BFD180D0B5D0B4D181D182D0B0D0B2D0BBD18FD0B5D182
70656C6967
7061727469636970616E7473
##D18FD182D0B8D18F
##74696E6F73
##74656D7073
636C6F73
74696F6E656E
657370616365
52656D
67756265726E
6672657175
D8A7D984D985D988D8A7D8AF
##736368656E
6E696E67C3BA6E
7265636570
D0B8D0BCD0B5D18ED182
766F6C6F
537465696E
##D181D182D0B2D183
D0BCD0B5D182D0B8D0BB
D180D0B0D189D0B5D0BDD0B8D18F
D181D0BED182D180D183D0B4D0BDD0B8D0BA
##6E656173
5856494949
D8B0D983D8B1
4E69656D
##C5BC656A
66696C656D
4361726C
6E6174696F6E617578
6772656174
##75746F72
666F726D617A696F6E65
576172737A61
D0B4D180D0B0
##D8A7D8AAD8A8
646972656374656D656E74
70617373616765
##75617264
506963
##676562656E
7072C3AA74
73617265626265
616D656E
D8A7D984D8B4D8A8
##D181D182D0BED18FD0BD
D0B4D0BED0BBD0B6D0BDD0B0
##656C6C6F77
##E0B89EE0B8A3E0B8B0E0B8ADE0B887E0B884E0B98C
7068617365
75736573
##75726F73
706F747265
72C3A9646974
##E0B980E0B8A7
6967756E67
667572656E74
6673
##D0B5D0BBD0B0
6B616D69
6361C582
D988D8A7D8ADD8AFD8A9
57696C68
417175
72657669737461
313535
##D092
D09ED181
D0BCD0BED0BA
646570617274616D656E746F
50656E64
##61636A65
61646F70746172
D8A5D8ACD8B1D8A7D8A1
70726976617465
6261736573
446F72
##D8B8D987D8B1
4D696775656C
##D8A7D8B6D98A
706572736F6E6E
6E7369
73696D706C6573
696E73676573616D74
D18DD182D0B0D0BF
4D6974676C6965
##414E47
76696F6C61
636F72726573706F6E6469
70726F686962
##69736D6F73
5552
616D65726963616E6F
##D8A7D984D98AD8AF
##75746574
6E6976656C6573
707564
666C6578
4A7567656E64
##617465676F72
72C3A9616C69736174696F6E
63757261
636572746F
696E746567
6C697175
313635
6578C3A9637574696F6E
D0BFD0BED0BBD0B5
D988D8AB
##D988D8B6D8B9
74696D6573
##616E6767
D0BAD0BED0B4
64C3A9636C6172C3A9
##77696B69
##6173746F
6173736F63696174696F6E
E0B898
72C3A9666F726D65
706FC5826FC5BC
70657274696E
D984D983D8B1D8A9
6E6F636865
6D7569746F73
6275656E61
D0BFD0BED0B1D0B5D0B4
##6162696C61
6772617475
##C3BC636B65
626169
D0B6D0B8D0BB
##756E6368
##D188D0B8D0BC
666174686572
736BC5826164
##61737465726E
696E66726173747275
53617961
D09AD0B0D180
4241
77C5826173
E0B8AAE0B8B3
7665726465
##66756E67
##D0BFD0BED0BD
6EC3A46368
6578706572696D
4C7578656D62
64697365C3B1
##616E63696173
7A616A
6175676D656E746174696F6E
D0B6D0BDD0B5D0BC
4D696E697374726F
##747A74
##636974C3A9
313633
##6963696F6E6573
##696E6574
73756976616E7465
706574697465
##D0BBD0B8D0B7
686572766F72
70727A796BC5826164
677269
706567
D182D0BED0BAD0BED0BB
6DC3A96465
D988D8A8D8A7D984
##6D616973
##D985D984D8A9
636F63
72C3A964756374696F6E
6F78
6175746F7572
6E657874
D98AD988D986D98AD987
63C3AD
636F6E636C75
##D0BCD0B5D180D0B8D0BAD0B0D0BD
556E69766572736974C3A9
D8B9D984D985
66726167
68617264
7365727461
636F7272
6576616C75616369C3B36E
6465636C617261
E0B980E0B899
48756D616E
6465626572C3AD61
6D6F74
66746967
5352
4E41
##69747265
##73747261C39F65
##D8AAD8AD
##D0B5D0BDD0BDD0BED181D182D18C
D09BD0B0
##627261636874
##C3A96E646F7365
496E67
74726162616A61646F726573
##D986D98AD981
D8A7D984D8A3D988D8B1
696E66616E
63686F697369
D8A7D984D981D984D8B3D8B7
64656978
72C3A96475697265
D180D0B0D181D0BFD0BED0BBD0BED0B6D0B5D0BD
6672616E63C3A973
##6C617566
6672616E63657365
##63696163696F6E6573
6573656E
636C61696D
46616365
666F6E646F73
6F6666696365
77737A7973746B696368
616E746572696F726573
4441
7265736F6C
696E677265736F73
616772C3AD
##D0BED0B3D180D0B0D184
776F726B73
D8A7D984D8A3D983
6175C39F657264656D
696F6E65
7665727365
466F726365
##D986D8B9
##6C69676874
7175656C717565
##616D6169
68747470
##D8B9D8AFD8AF
666573746976616C
63656E736F
6B6164
D8A7D8AAD981D8A7D982D98AD8A9
656E6572
##7475766F
D0B2D0BBD0B0D181D182D0B8
4D656572
6861726D
##756C6973
717569656E6573
##D0BDD0B5D181
6E656C6C6F
53796D
4E6F7576656C
4F727473
D18BD0B9
D8A7D984D988D8B2
##D988D8A7D8B9D8AF
D988D8A7D984D8B5
74656174726F
D0BBD0B5D0B9
313638
D985D8AAD988D8B3D8B7
##736368756C65
74656C6C6573
##6F77616E
5253
##6F77616E61
69736F6C61
D181D0BAD0B8D0B5
D18ED0B4D0B0
70726576696F7573
##696E79
D181D0BED0BB
73616265
526F74
##796B
6761726465
D8A5D984D98AD987D8A7
697365
61727479
D8B9D985D8B1
6576656E7475
##E0B8B2E0B893
##676562696574
D0B4D0B0D0BDD0BDD18BD0BC
##6F626965726E6F73
5072696D657261
416E647265
##65646F726573
70726563696F73
65726F
77796461
676975
D8ADD988D8A7D984D98A
D985D8B9D984D988D985D8A7D8AA
##C3BC747A656E
##D8AFD8A7D985D8A9
##616469616E
##3232
72656C61746976616D656E7465
696D696E
72616E74
66656174757265
D0BED0B4D0BDD0BED0B3D0BE
##D8ACD8B9
706C7574C3B474
47656E6572
D8A7D984D8B9D982
737563636573736F
6368616E67656D656E7473
D182D181D18F
##767265
D0BAD180D0B5
696E747261
D181D0B2D0BED0B1D0BED0B4
D09AD0B0
696E74656E74696F6E
7365696E6573
796F756E67
757269
4E72
61626F726174696F6E
737570706C
6275656E
69726F
6461676C69
D0BCD0BDD0B5
41746C616E
6465636973696F6E6573
67656E6E61696F
D0BDD0B0D0BA
7A646F6279
D8A7D984D8B3D98AD8A7D8B3D98AD8A9
417070
##676C6961
4C6167
D8A7D984D8A3D8AD
##696C6C6F6E
7472617661696C6C65
D0BFD180D0BED0B1D0BBD0B5D0BCD0B0
74616B65
##6579
D984D8ADD982D988D982
7469746C65
##6572696E67
C3A9726174696F6E
7061696E
D180D0B0D0BA
4D6972
##D988D986D8BA
##7072656E64
E0B884E0B8A3
736368616674
6469766572736573
##D8ADD8AFD8AB
D0B2D0B5D0BAD0B0
##6162657468
70616C65
67656772C3BC6E646574
##746F6772617068
536368756C
707265666572
76656E7469
636F6E74696E75616369C3B36E
D8ACD8AFD98AD8AFD8A9
6E6765
C3A26D
D0BCD183D0B6D187D0B8D0BD
69676C65736961
69766573
61747472696275
6B617461
7461626C656175
636F6D7061676E6965
6C6C616D616461
7465646573
6D617472696D6F6E696F
##706F72746572
63617262
##697A616461
74616D61
4D616368
6E6F77696B69
##E0B8A3E0B8B8
616D6172
D181D0BFD180D0B0D0B2
7569
E0B8ADE0B887
##494C
4B6F6E74616B74
4EC3A46865
6369756461646573
D0B2D0BED0BA
73746967
6469736372696D696E6174696F6E
67726FC39F
6F626563
504C
D0BFD180D0B5D0B4D0BFD180D0B8D18F
E0B8ADE0B8B5
##6E69636F73
59616E67
74656E7465
646570
##776569
6C69646572
D185D183D0B4
74656D7065726174757261
31393135
6176616E7A
4E696B
E0B887
73756976616E7473
53616C7661646F72
45636F6EC3B36D
6F74746F627265
##D186D0B8D0B5D0B9
6E697665617578
6D756C686572
4573746F73
##D0BAD0B0D0BCD0B8
##75746172
##746F776E
657374616369C3B36E
D18ED189D0B8D0B9
D0B2D18BD185D0BED0B4
656E676C
##D984D8A7D8AA
D0BFD0BED0BBD0B0D0B3D0B0
70616C6162726173
##7A6569746967
4E65747A
D0B8D0BBD0B0
7269676874
73636877
D180D0B0D0B7D0B2D0B8D182D0B8D18E
66726F6E7469
6E616A6C657073
646573636172
##74616D
656E746F
D180D0B5D0BDD0B8D0B5
##D8A7D983D985
D0B7D0B0D186D0B8D0B8
##797465
417564
##C3A2747265
313035
##E0B987E0B888
D0BCD0B8D0BDD0B8D181D182D180
C3A16D6269746F
D0B7D0B4D0BED180D0BED0B2
69746572
##616E6769
426C7565
##E0B8A3E0B8B9
E0B89D
72616365
6265636F6D65
776569746572656E
D8B9D8B1D8B6
D9A6
6B746F72
70726F70726961
D0B1D180D0B0
##D98AD8ACD98AD8A9
##E0B980E0B899
##C5BA647A
6F63636964656E74
6F6B726573
##D988D8B1D983
##D0B8D187D0B5D181D0BAD0B8D0B9
D8A7D984D8AAD988
62656C65
D181D0BBD183D187
##D8A7D8B1D8AFD8A9
D0BED186D0B5D0BDD0BAD0B8
676976656E
636F6E7465787465
666F726D6174
766F6C756E
6C75676C696F
##67656E6573
70726F706965646164
D0B2D185D0BED0B4
##73686970
7265636F6D656E646163696F6E6573
4A756E7461
73717561647261
646576656C6F706D656E74
D8A3D982
496E6E
4272616E64
##6F646172
6564696369C3B36E
6C69656E
72C3A967756C69
656C73
7665727465
D0B5D189D191
##69646F72
6B6C696368
D0BCD0BED0B9
766972747564
6772616475
##6C657373
4B656D
6F6E6461
5261696C
736D6F
6163636F72646F
66696C6D65
##74656E6465
##C3B66D
73747564656E7473
4D7573656F
31393133
646576656D
##7465727265
4368696E65
70617274696369706572
D0BFD0BED181D182D0BED18FD0BD
7265646573
D181D0B5D0BCD0B5D0B9
6D656E6461706174
7465727261696E
##617A7A6F
D0BED0B4D0BDD0BE
76696374696D6573
496465
476F64
##616761696D
41726D79
706C61796572
##746F6C
D8A7D984D8A7D8ACD8AAD985D8A7D8B9D98AD8A9
##D8ACD98A
##74696D6F
##76656E73
696365
##6369C485
D0B2D18BD0BFD183
D182D18BD181D18FD187
61706572
63616D62696F73
##74616E746F
##74656C6C6572
D184D180D0B0D0BD
D184D0B0D0BAD182
616E65
696D656E746F
##E0B8A7E0B8A2
69736C616D
6F66666963
50756572746F
69646572
666F726D6573
696C6973
696E7465727072657461
63616D7061676E65
4C617572
6D69656A736361
656E7265676973747265
##D0BBD0B8D181D18C
D985D8B5D8B1
706172746963697065
##D988D8A7D8B9
65736375656C61
70657175
4A656E
64657A
##726F6964
D0BED181D0BDD0BED0B2D0BDD18BD185
6368616E
##D0B5D0B7D0B4
##7072C3BC6E
6E6F6C
D983D8B1
576F6C66
313636
656A6563756369C3B36E
6C69676E6573
6B75727A
7574696C65
777A676C
66756C6C
65747461
496E69
##6473
6175737472
6872756E67
7375636564
4C69746572
72697573
D090D0BBD0B5D0BAD181D0B0D0BDD0B4
726567696F6E6573
737479637A
6B616C69
7A6569
D187D0B5D182D0B0
D0B0D0B1D0B8
486177
7262
D988D8A7D984D8B0D98A
70C3A972
##76657261
##696F6E61746F
##C3A964C3A9726174696F6E
6B69656479
##D985D8A7D98B
##D181D0BE
D8A3D8B9D984
D8A8D988D8A7D8B3
4D6175
##696C6C616E6365
##C3BC7373
D18BD0B2
616669726D61
72757373
7574696C697A61646F
6465706F72
##696E67616E
466F6E646F
##E0B8A3E0B881
4D65746572
D988D8A8D8B9D8AF
##6173746572
D8A3D984
##646F6E
776F626569
D8A7D984D985D8AFD986D98A
676172616E74697A6172
4443
636F6E766572746972
636F6E7472616374
6368C3A274656175
7269677561726461
41726368697465
##E0B8B8E0B881
##656C6C6572
6E75636C656172
7061727479
6E6163
64757261
##657474626577657262
636F6D6D756E697479
707265757665
##6174746C65
446F7266
D988D981D982D8A7
D0B7D0B0D0BC
636F6E7369677569
7374656C6C74
6DC3A96469636F
6361727465
D8A7D984D8B4D8AED8B5
D985D8B3D8AAD988D989
6575767265
7075626C696373
7573696E67
7072656D69C3A8726573
616D626173
##7175696C6572
7261696C
##61636AC499
416D62
D8A7D984D8B4D8B9D8A8
446F6D696E
D0BED181D182D0B8
6272696E67656E
D0B4D18B
5269636874756E67
D0B2D18BD0B1D0BED180
D0B6D183D180D0BD
546169
##C3A96C69
73746F7279
##C3A16E696361
D0A1D0B5D0B2D0B5D180
##697373656E74
766F6C6C65
##E0B8A5E0B8B2
D8A7D984D8A8D98AD8A7D986D8A7D8AA
##4441
D0BAD0B0D180D182
D18DD0BBD0B5D0BCD0B5D0BDD182
D8A7D8B1
636F6E6578
D0B2D183
D0BED0BBD0BE
##C3A26E636961
D984D988
D8A7D984D986D987
74697669
696E74657263
4C696E65
##7472C3A173
6374696F6E
646F62
##6163746F
4A7565
53656C6F6E
4C697665
726F62
747261646963696F6E616C
##65737A637A65
6D6F7576656D656E74
636F6D756E696461646573
6573746164
4CC3A46E646572
696D616765
666F6D
##7472696365
70C58279
686F67
416E61
41746C
5175616C6974C3A474
636F6D656E74
D0B3D0B5D0BDD0B5D180
D8AFD988D984D8A9
73746172746564
D8A7D984D8B4D985
726563696269C3B3
506F6C736365
##64657A
616E636573
6279C58279
646567
##7465696C74
6865757469
6C656769736C61
766F6C69
65737475766F
6F626965
6E75636CC3A961697265
66C3BA74626F6C
726175
6C616E6765
6D656D62726F73
70726F64756365
636F6E666972
D8A5D8B9D8A7D8AFD8A9
766572736368696564656E65
48696C6665
D8B6D8B1
D984D982
686967
466F7264
45696E7A656C
##656E746564
6DC3A97468
766172696F7573
756E69766572736974C3A9
##616E74616E
D0BED0B4D0BDD18BD0BC
7465726D6173756B
7A776172
6D756C61
D8A7D984D8A5D8AFD8A7D8B1D8A9
6D6567
4D6578
736F6C65
74656B
646966667573
D0BFD0BBD0BED189D0B0D0B4
4175737472616C
##D0BAD186D0B8D0B8
636F6D7061C3B1C3AD61
D8A7EFBBBBD8B3D8AA
D0BAD0BED182
D188D0B8D180D0BED0BAD0BE
6F67676574
66756E6461
6E7A69
##696F6E616C6573
D0BFD18FD182
D0B7D0BED0B2D0B0
6B72616A
D182D0B5D0BBD18CD0BDD18BD185
##6E69656E6961
6469666963
5472616E73706F7274
##74696170
D181D0BED0B2D0BCD0B5D181D182D0BDD0BE
D0BED0B2D0BED0B9
##6F62696C65
776F6D656E
D182D180D183
##D984D98AD8B2D98AD8A9
4272616E
E0B980E0B8A1E0B8B7E0B8ADE0B887
72C499
7472616E73706172
5769656C
7A65686E
636869657361
6E61697265
##D8B3D983D8B1D98AD8A9
##7A6F6E79
D982D8A8
##6D656E6573
616C6C6F7261
68616C66
6E746965
676E
4D53
##62696F
##D0B5D180D0B5D0BD
426C61
E0B896E0B8B9E0B881
6B74C3B3727A79
313533
6F706F7274756E
636F6E64697A696F6E69
D8B4D8B1D983D8A9
50726F64756B74
##C3AD6D70
##E0B980E0B881E0B8
D98AD8A8D984D8BA
75746F
C3A9726F
56657266616872656E
7369746F
C3A9766F6C7574696F6E
6D65696C6C657572
##D988D8B1D988D8A8D8A7
62696C61
7363686C6167
##7069656C6572
6B74C3B372796368
##C3B672656E
456D70697265
D0B4D0BED180D0BED0B3
7065726D616E656E74
##D8A7D8B3D8A8
706572666563
64656E7369646164
##6C617368
72617A79
D0B4D0BED0BCD0B0
D181D182D0B2D183D0B5D182
##D0B4D0B5D180
D0BDD0BED180
426F67
656E74616E746F
4B72696567
##746F7261
D0B4D0BED0B2D0B0
6469666572656E636961
70726F626C656D69
72696573676F
##C5BA647A696572
6D6F6465726E65
74696E61
66657269
##D0B5D180D182D0B2
70726F6475636564
##6569676E
6E657574
##776573
4146
7465757273
4D45
E0B895E0B8B1E0B8A7
D0B0D0BDD0B8D0B5
7072C3A973656E746572
416C6578616E64
D0BFD0BED18FD0B2
506172746965
686F7765766572
##7A637A
##7572616EC3A761
6E756DC3A9726F
##C59B77696164
566F6C6B73
4C6F63
416B75
736F63696564
4CC3B673756E67
6465737465
##68617264
64C5827567
76696775657572
64C3A97465726D696E6572
##D0A4
646574616C
64726F67
##C5BC75
5265696865
646973706172
6964656E7469
64756E67
##737472
##D8B9D989
61636F6E7465
6E756D61
D186D0B8D0BED0BDD0BDD18BD185
6176616E6365
50C3A9
D8AAD985D988D8B2
61747475
667574757265
D983D8B0D984D983
476562C3A4756465
706F6C6963C3AD61
74726162616A6F73
52756D
##76C3A9
746170
636F6E6669
75636874
66726569
D98AD982D8B9
6D656E6572
##75737465
##676C696368656E
6372C3A964
65737472756374757261
6172636869766F
##D8A7D986D8AF
##6261676169
D181D0B0D0BD
656E66696E
31393131
766F7A
##69C3A87265
D181D182D180D0B0D0BDD0B5
436F6D6D756E61
706F7369C3A7C3A36F
D8A7D984D8ABD982
7365727665
64697269747469
636F6E6F63696461
496872
696D706F7274616E7473
##7574C3A973
D8A7D984D8AAD8A7D984D98AD8A9
756B
316572
31393035
313536
62756C
##6965727A6368
5374657068
646972656374616D656E7465
65737472656C
6D6F64616C
56696572
4669727374
##6F727A797374
526173
76697465
737472616461
4D756E696369
7365636873
##72696B61
##C3B372696F
##6F6C73
D0BFD180D0B0D0B2D0B8
##7265656B
61767265
706F73736962696C6974C3A0
70726563696F
D8A8D988D8A7D8B3D8B7D8A9
53746F636B
52657075626C696B
##3231
646564696361
656C656D656E746F
##D988D8B5D98AD8A7D8AA
##D988D8AAD988D983D988D984
706F747265626265
416C6578616E646572
##7A69C4996B69
D0BCD0BED0BD
D0B8D187
4A61706F6E
D0BFD180D0BED188
##C5826F776965
707265766973746F
656C656D656E74
444F
##E0B8A7E0B8B2E0B8ABE0B98C
70616973
D8A7D984D8A7D8AE
##64656F
##D0B6D0B0
##D0BAD0B0D0B4
6D616E74656E696D69656E746F
##D0BBD18ED0B4
##D0B1D180
446967
616E6369656E6E65
##706F7365
62756C616E
D988D8A7D984D8AC
##D988D8ACD987
466F69
736F6369617578
##73747761
566964656F
696E7465726E6174696F6E617578
C3A96D
6D696E69737472
41727473
##72697474
67657265
D8A7D986D8B8D8B1
536967
706173736572
##D8B7D984D8B9
##63696573
4F67
466F6E6473
477565727265
696E6974696174697665
6DC3A178696D6F
##C3B370
696E667261
6177617264
636F6E74726F6C6C6F
##756C74616E
##D988D98AD8AF
686176696E67
##6865696E
##697373656E
D0B4D0B2D0B5
636F6D69656E
72697474
C396737465727265696368
627572656175
7769656C65
##D8A8D8B1D8A7D8A1
##D186D0B8D0B0D0BBD0B8
56696574
##D8B1D98AD986
436C617373
##D8B1D983D8A7D8AA
6D6964
537175
D8ACD8AFD98AD8AF
##C3A475666967
757373
416C62657274
436F6D6D756E617574C3A9
##75C39F
6578616D70
D8A7D984D8AAD8AFD8A7D8A8D98AD8B1
##756D70756C616E
D986D985D988
##A2E0B982E0B8AEE0B8A7E0B8B2E0B8ABE0B98C
##4942
D988D8A7D984D8A8
##797A
D8A7D984D985D8B3D984
##D8A7D985D8A7
##696574C3A0
##62756E64656E
##6F6B7261
D0BCD0BED0BCD0B5D0BDD182
616E7473
##D8B3D8A7
##656E6975
##D988D986D98AD8A9
4A61687268756E6465727473
46C3B672
426F6F6B
696E737461
706F626C61
6E69C3B16F
7363686C6965C39F6C696368
436976696C
##D8A7D8B8
6DC3AD
D182D0BED180D0B3D0BED0B2D0BBD0B8
D8A8D8B5D988D8B1D8A9
7175656C6C69
##686E74
D985D8B9D8B8D985
706C6F79
7068797369717565
##5041
##69726173
D8AED8A7D8B5
##617269616E
D8A7D983D8AA
C3A967616C6974C3A9
##7761686C
D8A7D984D8B8
7A616C
##617269616D656E7465
D8A8D98AD986D985D8A7
##656C6C6F
##6F6E6E65
##D983D98A
##616E7475
726970
##D0B3D0BED0B4D0BDD18F
##6E696A
657370656369616C6573
54726162616A6F
73756974
E0B895E0B8B2E0B8A1
72657374726963
##676577
##D8B0D8A7D8B1
747569
686162696C
4D616E64
7061737361
6D69736573
494D
D983D8ABD98AD8B1
42616B
D0BDD0BDD0BE
##D182D18B
65636F6E6F6DC3AD61
62617374616E7465
D182D0B5D0BBD18CD0BDD0BE
6D616A65
4974616C69656E
696E69746961
74726167
50756E6B
736563746F726573
7269666572
##D0BED181D0BED0B1
D8A7D984D985D8B3D8A7D8A6D984
D0B2D0B0D0BBD0B8
##C3A972C3A965
706F74727A65
4772656174
D09ED09E
7369747561746F
##67616E646F
##6673
617061727461
D187D0BBD0B5D0BDD18B
70726F626162696C
##7A656E6975
7472616E
##5456
707569737365
65736572
616E6578
D186D0B5D0BBD0B8
5452
##72616E65
D8A7D984D8A7D982D8AAD8B5D8A7D8AFD98A
6C6561646572
57696E64
D0BDD0B5D0BAD0BED182D0BED180D18BD185
6368616E74
##D8B2D8A7
63616C656E64
7061727469636970616E746573
426573756368
D0A2D0B0
47657365747A
D8AED8AFD985D8A7D8AA
416C746F
64616E796368
70C3AA636865
##69677465
D189D0B5D0B9
66C3B672
73656E64697269
77727A65
D988D8A7D986
61727469737461
##776174
4A616D
4E6F7661
64796E
4C6170
7A61696E
##6D61696C
##737765697365
##7972
4A6170C3B36E
6475726573
D8A7D8AAD8AED8A7D8B0
6368616D627265
D8B3D8A8D98AD984
6173736F6369C3A9
4768
##72616461
##D982D8A8D984
7365726961
657363616C61
53696E676170
D0B8D181D18C
61637573
526F7961756D65
42616368
706C656E
766569
##D0B5D0BDD0BDD18BD0B5
D0B8D181D0BFD0BED0BBD18CD0B7D0BED0B2D0B0D182D18C
50726F647563
##D8B3D8A7D8B9D8AFD8A9
646973747269627574696F6E
6672616E63657361
656AC3A9726369746F
576F7274
C3A96C6563747269
##61726C6F
##616E63
6DC3A874726573
##7465676F
D187D0B8D182
##70C3B3C582
446174
##D8A7D8B4D8B1D8A9
##726F736F6674
D0B4D0B5D0BBD18F
4B6E
##D8AFD987
50726978
666F726D616C
5045
31393136
##6572696D61
D984D98AD8B3
##616C69736D6F
##E0B89CE0B8B9E0B989
436869657361
686F77
70656C616A6172
##D8A7D982D8A8D8A9
##7363686C6965C39F6C696368
6D656E6F726573
7765636873
D0BDD0BDD18BD185
##616D69656E746F73
D0BCD0BDD0BED0B3D0B8D185
D18BD182
D0B1D0B5D180
D8A7D984D8ADD982
D988D8A8D8B1
##C3A96F
D182D0BED0B2D0B0
636F6E737469747574696F6E
D09BD0B5
62656C6965
75747A
636F6D707461
E0B896E0B8B6E0B887
##626F757267
6375796F
D0B0D0B9
D0B2D182
##68616B
616C6CC3AD
D988D984D8A7D98AD8A9
416666
##736368616674656E
##6369616E
##776574
##77616E6965
##6B6173
626F6D62
##6164C3A1
50617973
7072657373696F6E
##776F7274
D8A7D984D986D981
##D8AAD987D985
62696C6C
65696C
##D8B9D8A7D8B1
##D8A7D8AAD987
636C69656E7473
##61726F646F
4C69737465
##D8AFD8A7D8AF
D8B4D98A
416C6C6168
##7A79736B61
7072C3A1637469636173
##E0B8ABE0B8A1
4C45
##6F6D696E69
##D183D0B3
646966666963756C74
##3233
61626F7265
D8A7D8A8D986
##E0B988E0B8B2E0B8A7
416B74
61646F7074696F6E
313534
7069616E
657374696D65
D988D8A7D984D8AB
67656E74
6D616C65
6DC3B3
707265737461
61636F6D7061C3B1
64756E6961
4665726E616E646F
646F64
##D0B0D180D182D0B0D0BCD0B5D0BDD182
##E0B895E0B98C
7365727669C3A76F73
##C3A96D656E74
636F737469
706F6E746F
7061C5BA647A696572
##D8ACD98AD984
61746D6F73
636F6C6F6E69
D181D0BBD183D187D0B0D18F
42616E636F
706F6E6164
57657274
7365677572616EC3A761
656E74656E64
6B6574696B61
##D8B6D8A7D981
##D0B8D180D0B5D0BAD182D0BED180
##E0B8A7E0B899
D187D0BDD18BD185
616C74656E
637AC5826F6E
##D8B7D984D982
506F6C6974696B
676577616E6E
D9A7
737566696369656E7465
##61727A
626168617361
D8AAD8AE
##D8B5D984D8A7D8AD
##776964
506172C3AD73
5765696E
706C616E746173
D0BFD0B5D180D0B5D0B2D0BED0B4
61677265
D8AAD982D988D985
636F6E736964657261646F
6D6564616C
44657075
427279
##636964616465
6469636861
7363656C
4D6963726F736F6674
##D0B2D0B0D18ED182
##63696D61
##82E0B8ADE0B887
75647261
6C6F6E6769747564
4575
D18FD189D0B8D185
7065696E
D180D0B0D0BDD0B5D0BDD0B8D18F
656E72656769737472
##C3A8717565
D0B2D181D182D180D0B5
##6E656C73
##6A6577C3B364
D0B0D0BBD18CD0B1D0BED0BC
##7061726174696F6E
##E0B897E0B8B1E0B989E0B887
616363657074
##72696E67
726F756E64
636F6E73656375656E636961
70656E616C
74656E7565
4D6343
4649
##74696C6C6F
4B68
D187D0B8D181D0BBD0B0
##65747469
566963746F726961
##696C61626C65
77C3A47265
313337
537269
426576C3B66C6B6572756E67
656D706C6F79C3A973
D0B0D180D0B0
64C3A963726974
636F6C61626F72616369C3B36E
696E737472756D656E7473
D0BFD0B8D182
5765737465726E
##C3A17469636173
##70726573656E74
7065726D65747465
77616B
6E6174757261
726F6164
D0B5D0BDD0BDD18BD185
67656E6F6D6D656E
706575706C65
76616E74
4F626A65
7375727665696C6C616E6365
##7567756179
416772
67656E616E6E74
##696369616C
74656F72
D181D182D0B0D182D0B8
7365697465
6573746573
506172746573
D0B8D0B3D180D0B0
456973656E
6665646572616C
73636869
##686F6C64
7265766973
70726563697361
4D656973746572
##696C6172
72756E67
7364
D8A3D8B5D984
6B74C3B372796D
73657269
##7472696573
##696163
67757465
D8A7D984D8ACD986D988D8A8
706F7274616E74
70726F766964
6D616A6F726974C3A9
65617374
D0B4D0BED181D182D0B8D0B6D0B5D0BDD0B8D18F
D0BFD0B5D180D0B2D18BD0B9
666577
50616C6573
D8A7D984D8ABD8A7D984D8AB
68756D616E6F
636F6E736F6D
##77656C6C
##C3A964C3A9
##B4E0B894
526963
D181D0B5D0B4
677569
507265736964656E74
747261746172
D180D0B5D0B0D0BBD0B8D0B7
D0B4D18F
6163636573736F
436965
##D0B3D0BED0B4D0B0D180D18F
656375
5669656E
73697475617A696F6E65
536F6D6D6572
63686F73
D988D8A7D984D981
7365616E
736F6C616D656E7465
77727A65C59B
496E7465
##696E6172
##69657369C485
7265636962
##D984D98AD98AD986
73756976616E746573
72657365727661
D091D0BE
7065726E6168
4E53
6665737461
6269656E73
D0BED182D0B4D0B5D0BBD18C
63726561746564
646563696469C3B3
##D181D0BAD0BE
57616C64
4B6173
D8A3D982D984
D187D0B5D181D0BAD0B8D0B5
##7A796E
706964
##656E676168
636170617A
##696567
72656369626972
6C657373
7365637265746172
626179
70616369656E746573
7374617469737469717565
676965
D187D0B5D182D18BD180D0B5
4D656872
636C6173736966696361
##E0B897E0B988E0B8B2E0B899
6D697374727A
45737061676E65
D8AED8A7D8B1D8AC
D0BFD180D0B5D0BC
617072696C65
4B616973
46726565
##D8B1D987D8A7D8A8
466F6F7462616C6C
53656974656E
6C6168
##6361646F
67656E6365
686E756E67
5765697365
61706172656365
636C61726F
4163636F7264
D8A5D8AF
7365636369C3B36E
D0BED181D182D0B0D0B2
6273
76656E7465
##6C696761
526170706F7274
6D6F6461
70726F766973
##6B6FC59B6369
636F6E736964C3A972C3A9
##6AC499636961
72656C6163696F6E61646173
E0B8AAE0B8B2E0B8A1
D181D0B2D0B8
68617573
64C3A970617274
6C69636874
##686562
737361
D8A7D984D8AAD8B3
696E7465726E617A696F6E616C65
D0B0D0BCD0B5D180D0B8D0BAD0B0D0BD
7772697474656E
657374617661
42726967
64C3A9636964
626C69636B
446F73
D181D0BAD0BED180
4E47
646575746C696368
##696368C3A9
##D0BED0B6D0B5D181D182D0B2
636F6F7264696E6174696F6E
636F6E6365
616363696F6E6573
D0BED181D18C
##D187D0B5D181D0BAD0B8D185
68697374C3B3726961
31393038
D0B2D0B0D0BDD0B8D18F
6A75737469636961
##D0B8D0BBD0B0D181D18C
6F746F72
##74697669646164
D8A8D8B1D8A7D985D8AC
D0B1D0B0D182
6A75737465
736F6C696369747564
D0BFD180D0BED184D0B5D181D181
##74726574656E
D8A7D984D8A3D8B5
4573746173
6469726569746F
6D73
616C67756E61
[...]
